[PAD]	0
[UNK]	0
[BOS]	0
[EOS]	0
.	-3.04382
▁the	-3.62947
,	-3.65906
▁and	-3.84558
▁to	-3.92046
▁a	-4.13688
_	-4.61372
▁for	-4.72195
▁"	-4.72979
▁was	-4.77822
:	-4.90605
▁of	-4.91406
s	-5.06759
'	-5.0882
▁is	-5.16438
▁	-5.19923
▁if	-5.24616
▁it	-5.29066
▁=	-5.29711
)	-5.3265
▁in	-5.3339
▁{	-5.38603
▁on	-5.40531
▁that	-5.42739
(	-5.4402
▁}	-5.44355
▁(	-5.48653
▁with	-5.52813
▁her	-5.5477
▁She	-5.55574
▁He	-5.59717
/	-5.61712
▁//	-5.62448
▁They	-5.68283
"	-5.70035
▁`	-5.73305
▁The	-5.74572
."	-5.7736
▁or	-5.7785
▁said	-5.78486
;	-5.7891
▁he	-5.81092
▁you	-5.83795
-	-5.85805
▁#	-5.87168
▁we	-5.9122
▁she	-5.93273
▁```	-5.94107
▁they	-5.94985
▁your	-5.95764
`	-5.97349
▁day	-5.98858
▁his	-6.00877
▁function	-6.01062
▁so	-6.06242
("	-6.08233
▁not	-6.09724
▁Lily	-6.11508
t	-6.13307
▁their	-6.13929
▁had	-6.16464
!	-6.20914
▁return	-6.23598
▁this	-6.23791
▁time	-6.24254
▁there	-6.24427
▁based	-6.26608
▁as	-6.29724
▁then	-6.31573
▁user	-6.3215
▁be	-6.33389
▁'	-6.33541
▁different	-6.33623
▁It	-6.37265
▁else	-6.3823
▁switch	-6.38855
else	-6.39709
▁very	-6.40042
▁are	-6.40721
n	-6.41981
▁statements	-6.4205
▁-	-6.44404
▁input	-6.45444
▁but	-6.47862
▁little	-6.4828
▁mom	-6.49239
▁can	-6.50206
▁handle	-6.50404
case	-6.51456
▁happy	-6.51741
▁control	-6.52353
▁I	-6.5243
▁all	-6.52613
▁flow	-6.53644
▁Here	-6.53913
▁from	-6.54274
▁were	-6.55351
▁saw	-6.55641
▁some	-6.55685
▁snippet	-6.55797
▁by	-6.56034
▁big	-6.56119
!"	-6.5644
▁them	-6.58045
▁at	-6.59719
▁each	-6.59917
▁an	-6.61036
▁code	-6.6145
▁whether	-6.62089
▁upon	-6.63898
▁hygiene	-6.65555
▁Once	-6.68059
▁play	-6.69413
▁which	-6.69842
▁comments	-6.70704
▁have	-6.72853
▁how	-6.76917
▁If	-6.77471
▁up	-6.77648
The	-6.80121
▁wanted	-6.80804
▁check	-6.81461
▁girl	-6.83286
()	-6.83939
▁him	-6.83971
▁out	-6.84089
▁new	-6.8473
▁end	-6.85089
▁value	-6.85457
")	-6.86947
▁like	-6.86974
▁when	-6.87057
",	-6.88637
▁use	-6.89671
▁High	-6.89966
▁one	-6.90413
▁message	-6.91206
▁Analysis	-6.92906
▁level	-6.93505
▁Extreme	-6.9356
▁Low	-6.93664
▁Check	-6.94032
▁<<	-6.94279
▁Engineer	-6.95002
▁Experts	-6.95694
▁Decision	-6.96023
▁Professionals	-6.96119
▁Beginners	-6.96388
▁Making	-6.96571
▁One	-6.97079
run	-6.97165
▁go	-6.97644
▁will	-6.97789
▁went	-6.98409
▁case	-7.0063
▁==	-7.00728
▁could	-7.01574
?"	-7.02796
▁Dry	-7.04361
▁friends	-7.04821
▁do	-7.05913
name	-7.05956
▁conditions	-7.0687
▁score	-7.06998
▁explaining	-7.07367
▁other	-7.07571
▁what	-7.08205
▁back	-7.08249
▁high	-7.08971
▁Ben	-7.10305
▁named	-7.1151
▁print	-7.12043
▁Tom	-7.12503
▁|	-7.13166
▁has	-7.13335
▁too	-7.14819
▁help	-7.158
▁let	-7.16561
);	-7.16799
▁decision	-7.17062
▁sample	-7.17147
▁In	-7.17492
▁implementation	-7.1767
▁about	-7.18069
▁possible	-7.18347
▁We	-7.18463
▁around	-7.18997
▁smiled	-7.19158
▁asked	-7.20255
::	-7.20726
▁make	-7.20966
▁loved	-7.21006
▁any	-7.21915
▁want	-7.23057
▁felt	-7.23114
▁*	-7.23576
▁well	-7.24543
▁get	-7.25266
▁looked	-7.25582
▁Timmy	-7.25641
▁cases	-7.25781
▁into	-7.25993
▁fun	-7.26073
▁more	-7.26187
▁home	-7.26348
▁statement	-7.26567
▁see	-7.2713
▁did	-7.27639
▁found	-7.27958
▁This	-7.27978
▁determine	-7.2815
▁low	-7.283
▁result	-7.28698
▁<	-7.28994
▁made	-7.29232
▁echo	-7.29486
\	-7.29906
▁who	-7.30388
id	-7.30679
▁true	-7.32149
▁But	-7.32273
▁boy	-7.32467
▁again	-7.33445
I	-7.33508
▁C	-7.33792
▁would	-7.34059
▁no	-7.34509
▁care	-7.34556
€	-7.3521
â	-7.35249
▁string	-7.35296
▁console	-7.35767
▁away	-7.35879
▁script	-7.37409
▁something	-7.40048
ing	-7.40291
▁started	-7.40339
▁related	-7.40473
▁&&	-7.40777
▁hand	-7.40863
▁Calculate	-7.40872
▁together	-7.41397
▁says	-7.41744
▁logic	-7.42223
▁two	-7.42225
▁You	-7.42297
▁program	-7.42494
▁Display	-7.42736
▁name	-7.42959
▁database	-7.43361
▁ran	-7.43719
▁Determine	-7.43915
▁appropriate	-7.44253
▁main	-7.44696
▁water	-7.4495
,"	-7.4535
▁Incorporate	-7.4604
▁first	-7.46366
▁Finally	-7.47435
▁park	-7.47767
▁std	-7.47829
▁than	-7.48061
?	-7.4915
log	-7.49308
▁number	-7.49488
▁run	-7.49788
";	-7.50506
▁dry	-7.51479
▁outside	-7.51991
▁hands	-7.52612
▁Define	-7.53094
▁sad	-7.53275
▁good	-7.5472
▁+	-7.55719
▁take	-7.56212
▁Console	-7.5817
▁=>	-7.58621
▁bird	-7.58676
▁put	-7.59806
▁find	-7.60101
▁false	-7.60148
▁int	-7.60516
▁println	-7.61055
▁playing	-7.61444
();	-7.62162
▁such	-7.62266
▁1	-7.62574
▁$	-7.62838
▁our	-7.62969
▁consent	-7.63046
▁age	-7.63077
▁down	-7.63318
▁Transform	-7.63378
▁things	-7.63616
▁over	-7.6399
▁while	-7.64033
▁break	-7.64049
):	-7.64153
▁extreme	-7.64566
▁Update	-7.64875
▁called	-7.65372
d	-7.65535
▁calculate	-7.66441
▁Use	-7.66515
▁>=	-7.67009
▁current	-7.67025
▁also	-7.6763
▁Tim	-7.67752
▁liked	-7.67854
▁friend	-7.67963
4	-7.68294
▁fmt	-7.68328
▁trust	-7.68591
m	-7.68957
▁excited	-7.69253
▁decided	-7.69313
▁:	-7.69406
if	-7.69614
e	-7.69744
▁got	-7.69836
▁data	-7.70178
▁before	-7.70815
>	-7.70908
▁set	-7.71368
▁came	-7.71562
▁[	-7.7197
▁man	-7.72371
▁me	-7.7245
▁always	-7.73054
i	-7.73206
▁where	-7.73594
▁depending	-7.73894
[	-7.74294
▁table	-7.75082
▁using	-7.75202
▁provide	-7.75246
▁type	-7.75316
▁scared	-7.7539
▁health	-7.75908
▁old	-7.75995
▁both	-7.76095
}	-7.76586
string	-7.76869
▁WHERE	-7.77331
WriteLine	-7.774
▁need	-7.77488
▁indicating	-7.77652
▁just	-7.77714
▁const	-7.77896
▁didn	-7.78285
One	-7.78316
▁information	-7.78641
▁its	-7.78776
No	-7.78823
▁uses	-7.78886
▁behind	-7.79342
▁implements	-7.80627
Lily	-7.80682
Invalid	-7.81145
▁after	-7.81467
▁through	-7.8169
▁reliability	-7.82067
▁took	-7.8214
▁used	-7.82265
',	-7.82445
▁tree	-7.82651
▁my	-7.82825
▁mommy	-7.82912
▁returns	-7.83036
▁Then	-7.83049
▁toys	-7.83106
":	-7.83182
y	-7.83221
▁values	-7.83866
▁Hygiene	-7.83996
▁between	-7.84016
▁public	-7.8404
▁dog	-7.84264
▁perform	-7.84592
▁update	-7.84696
▁Create	-7.8522
++	-7.85271
▁>	-7.85401
▁process	-7.86168
low	-7.86538
]	-7.86562
They	-7.86663
▁special	-7.87147
▁ensure	-7.87246
");	-7.87526
.");	-7.87695
▁include	-7.87835
▁inside	-7.88281
▁total	-7.89567
▁know	-7.89695
▁transparency	-7.89821
▁given	-7.90061
▁takes	-7.90229
▁CREATE	-7.90861
▁approach	-7.91037
▁thought	-7.91374
▁patient	-7.91568
out	-7.91885
▁0	-7.92161
▁enter	-7.92356
▁System	-7.92412
:"	-7.9242
▁much	-7.92852
Yes	-7.93004
▁look	-7.93718
▁off	-7.94391
▁Sam	-7.94444
▁action	-7.94488
▁module	-7.94797
▁knew	-7.95266
▁define	-7.95457
▁scenarios	-7.95458
j	-7.95659
▁default	-7.96104
▁until	-7.96135
▁clear	-7.96185
▁implement	-7.96431
▁output	-7.96739
▁Max	-7.96929
▁car	-7.96989
▁dad	-7.97535
▁actions	-7.98222
▁many	-7.9863
▁these	-7.99186
▁+=	-7.99778
data	-7.99788
▁try	-7.99984
▁i	-8.00109
▁house	-8.00258
▁FROM	-8.00523
▁puts	-8.00588
▁Safety	-8.00626
▁may	-8.01081
▁AS	-8.01264
▁sorry	-8.01279
▁detailed	-8.01662
▁only	-8.0177
▁Transparency	-8.01895
`,	-8.02513
▁Reliability	-8.02736
▁Trust	-8.0295
▁store	-8.03289
▁Rust	-8.03486
▁Anna	-8.03608
r	-8.03786
▁three	-8.03976
▁Consent	-8.03989
▁Implement	-8.04069
▁cleaning	-8.04292
▁double	-8.04318
to	-8.04336
▁toy	-8.04413
▁/	-8.04465
▁room	-8.04817
Enter	-8.05109
▁gave	-8.05236
▁Ethics	-8.05332
▁||	-8.0545
▁${	-8.05476
▁Privacy	-8.05537
▁because	-8.05648
▁Bias	-8.05782
▁Responsibility	-8.05825
▁read	-8.05846
▁def	-8.05861
▁Mom	-8.07204
▁NOT	-8.07652
▁best	-8.07832
f	-8.08099
▁tried	-8.0828
▁display	-8.08801
▁making	-8.08803
▁===	-8.08983
p	-8.09395
▁here	-8.0968
▁never	-8.09837
▁don	-8.09851
▁condition	-8.09921
▁risk	-8.09957
▁told	-8.10215
▁ball	-8.10224
▁couldn	-8.10296
▁specific	-8.10353
▁been	-8.10459
▁Julia	-8.10767
▁people	-8.10789
▁variable	-8.10818
▁<=	-8.11065
▁food	-8.11821
▁Consider	-8.11856
▁Ensure	-8.12614
▁during	-8.12631
ed	-8.12746
▁heard	-8.12852
▁outline	-8.12876
▁Write	-8.12992
documented	-8.13441
#	-8.13447
▁clean	-8.13473
▁:=	-8.13576
println	-8.13645
▁Build	-8.13648
Println	-8.13747
▁Provide	-8.14337
▁Go	-8.14637
▁still	-8.1479
▁reasoning	-8.14797
▁privacy	-8.15119
▁conditionally	-8.15219
It	-8.15245
various	-8.15399
▁proud	-8.1562
▁variables	-8.15657
commented	-8.15788
▁static	-8.15835
▁Develop	-8.15981
▁way	-8.1606
high	-8.16179
▁Cypher	-8.16715
▁Ruby	-8.16716
▁better	-8.16945
making	-8.17001
')	-8.17168
{	-8.17696
▁personal	-8.17725
▁structured	-8.17852
But	-8.1814
▁temperature	-8.18378
▁played	-8.18406
▁hugged	-8.18528
▁another	-8.19011
▁Design	-8.19316
▁And	-8.19414
▁being	-8.19538
=	-8.1956
▁"\	-8.19622
▁next	-8.19795
▁does	-8.19867
▁results	-8.19955
▁TypeScript	-8.20321
▁SELECT	-8.20875
▁Jack	-8.21352
▁JavaScript	-8.21363
▁analysis	-8.22123
▁import	-8.22345
input	-8.22645
▁nice	-8.22915
▁query	-8.22974
▁provided	-8.23094
))	-8.23263
▁match	-8.23396
),	-8.23537
▁functionality	-8.23875
▁give	-8.24038
▁within	-8.24262
▁hair	-8.24271
▁void	-8.24377
▁Neo	-8.24446
.")	-8.24681
score	-8.24734
▁--	-8.2479
▁box	-8.24818
▁NULL	-8.2488
▁small	-8.25125
▁method	-8.2513
▁levels	-8.25326
▁even	-8.25498
c	-8.25681
▁bool	-8.26183
▁long	-8.26221
▁safe	-8.26763
▁3	-8.27511
▁p	-8.27595
▁bear	-8.27605
▁2	-8.27966
▁additional	-8.28342
▁A	-8.28445
('	-8.28648
▁washing	-8.28693
▁String	-8.28727
▁private	-8.29016
▁0;	-8.29104
▁Her	-8.29146
▁items	-8.29458
▁relation	-8.29503
▁SQL	-8.29607
hygiene	-8.29671
▁func	-8.30554
▁error	-8.30923
▁list	-8.31028
cout	-8.314
▁item	-8.31889
▁should	-8.32168
▁When	-8.32563
▁learned	-8.32577
▁eat	-8.33216
▁Python	-8.33364
▁)	-8.33408
▁every	-8.3357
▁us	-8.34288
▁needed	-8.34379
▁without	-8.34583
▁AND	-8.34662
▁checks	-8.34678
▁(`	-8.34687
▁per	-8.34725
▁From	-8.3476
▁symptoms	-8.34851
▁say	-8.35184
▁Mia	-8.35451
▁boolean	-8.35635
▁recommended	-8.36848
▁sky	-8.37223
▁careful	-8.37255
▁So	-8.3728
▁technique	-8.37374
▁prompt	-8.38062
▁come	-8.38085
▁laughed	-8.38196
▁safety	-8.38462
▁average	-8.38497
▁range	-8.3857
▁required	-8.38918
▁feel	-8.39121
▁For	-8.39207
▁add	-8.39464
▁thanked	-8.39731
▁garden	-8.40214
▁Hand	-8.40267
▁cat	-8.40815
.\	-8.40846
(`	-8.40934
▁recommendation	-8.41028
▁routine	-8.41154
()`	-8.41175
▁Java	-8.41261
▁person	-8.41345
▁date	-8.4147
<	-8.41797
▁MATCH	-8.42169
▁love	-8.42316
▁"$	-8.42351
date	-8.42726
▁file	-8.42894
▁&	-8.43107
▁now	-8.43529
▁Sara	-8.43666
▁Cleaning	-8.43844
▁work	-8.43937
age	-8.44058
▁written	-8.44171
▁kind	-8.44205
▁eyes	-8.44297
g	-8.44457
▁key	-8.45102
▁show	-8.45251
▁Bash	-8.45514
▁bad	-8.45643
▁cout	-8.45704
▁His	-8.45753
▁animals	-8.45753
▁lots	-8.45853
in	-8.46076
▁beautiful	-8.46121
▁Otherwise	-8.46452
▁ON	-8.4647
You	-8.4743
true	-8.47609
▁hard	-8.47815
String	-8.48026
▁keep	-8.48681
▁status	-8.48933
▁shared	-8.49033
▁`"	-8.49145
2	-8.49285
extreme	-8.4935
▁updated	-8.49371
a	-8.49479
Low	-8.49767
▁share	-8.4992
level	-8.50175
▁steps	-8.5033
▁soon	-8.50588
="	-8.50623
▁count	-8.50833
▁nose	-8.51053
What	-8.51134
▁elif	-8.5157
▁red	-8.51746
▁along	-8.52239
transparency	-8.52277
▁lived	-8.5322
▁walked	-8.53364
▁handling	-8.53391
▁going	-8.53481
▁create	-8.53668
▁flew	-8.54428
▁var	-8.54572
user	-8.54596
▁final	-8.54629
▁angry	-8.54636
▁specified	-8.55006
▁conditional	-8.55189
▁either	-8.5519
`)	-8.55308
▁kept	-8.55446
Let	-8.55498
▁years	-8.5552
▁coughing	-8.55543
|	-8.55766
▁Please	-8.56196
▁class	-8.56333
▁Flossing	-8.56354
▁family	-8.56404
!("	-8.56416
Tom	-8.56577
High	-8.56633
▁daily	-8.56659
▁done	-8.5668
▁node	-8.56728
1	-8.5677
▁teeth	-8.56785
▁sun	-8.5738
time	-8.57521
▁above	-8.57783
▁loud	-8.57894
▁idea	-8.58117
▁Suddenly	-8.58144
▁brave	-8.58162
▁soap	-8.58206
▁under	-8.58276
▁cleanliness	-8.58352
▁habits	-8.58517
▁VARCHAR	-8.58593
trust	-8.58756
▁hurt	-8.5896
sql	-8.59024
▁Prompt	-8.5969
▁noise	-8.59876
▁important	-8.60123
▁pretty	-8.60283
▁->	-8.60442
▁Toilet	-8.60484
▁step	-8.61077
"]	-8.61142
▁answer	-8.6127
▁Personal	-8.61702
▁less	-8.62121
re	-8.62125
▁wash	-8.62301
▁TABLE	-8.62628
▁transform	-8.6264
▁feeling	-8.62668
▁"""	-8.62916
Please	-8.6292
▁fn	-8.62942
▁face	-8.63304
▁After	-8.63719
▁expert	-8.64234
▁door	-8.64286
▁];	-8.64426
▁c	-8.64507
▁sure	-8.64639
){	-8.65099
▁running	-8.65176
▁walking	-8.65451
Mom	-8.65547
▁argument	-8.65559
▁ear	-8.65646
▁TEXT	-8.65924
type	-8.66106
▁Proper	-8.66185
▁nodes	-8.66206
▁valid	-8.66237
▁explore	-8.66276
▁opened	-8.66674
▁Using	-8.66901
▁start	-8.66985
▁shiny	-8.67327
▁lot	-8.6741
▁price	-8.67442
▁ground	-8.67478
▁fast	-8.67527
▁example	-8.67573
▁etc	-8.67598
▁product	-8.67941
▁Hair	-8.67954
▁least	-8.67982
▁BY	-8.6799
['	-8.68119
▁looking	-8.68209
▁gender	-8.68273
`/`	-8.68371
▁hug	-8.68771
That	-8.68955
▁Lucy	-8.69113
▁dental	-8.69339
▁proper	-8.69718
▁yes	-8.6997
▁nodded	-8.70418
bash	-8.70476
▁RETURN	-8.70613
Thank	-8.7132
▁Get	-8.71364
▁containing	-8.71603
▁r	-8.72094
▁f	-8.72666
▁toilet	-8.72999
▁record	-8.73281
▁!=	-8.73379
consent	-8.73397
▁Function	-8.73493
▁responsibility	-8.73516
▁overall	-8.73596
▁array	-8.73634
▁flossing	-8.73934
▁right	-8.73961
("\	-8.74005
reliability	-8.74432
▁enough	-8.74591
▁inputs	-8.74661
▁great	-8.74728
▁picked	-8.74764
▁etiquette	-8.75256
include	-8.75329
▁place	-8.75483
▁corresponding	-8.75839
▁fi	-8.75859
▁n	-8.75949
▁represents	-8.76265
`.	-8.76473
▁loop	-8.76517
▁calculates	-8.76686
▁id	-8.77061
▁5	-8.77185
▁float	-8.77832
▁weight	-8.78294
▁Query	-8.78328
▁num	-8.78338
We	-8.78456
▁having	-8.78507
▁certain	-8.78937
▁smile	-8.79019
["	-8.79129
▁!	-8.79466
He	-8.79806
▁Note	-8.79817
▁representing	-8.79878
▁mean	-8.80193
▁warm	-8.80195
▁John	-8.80965
▁ever	-8.81184
▁endl	-8.8121
▁looks	-8.81267
▁Every	-8.8154
yes	-8.81682
▁entered	-8.81705
▁Dental	-8.81718
▁noticed	-8.81737
▁parameter	-8.81812
▁Ear	-8.81978
A	-8.81994
▁line	-8.82157
▁stay	-8.8218
▁Mommy	-8.82433
▁%	-8.82638
▁transformed	-8.82751
▁Based	-8.82935
▁available	-8.83173
▁Food	-8.83189
▁rate	-8.83447
▁experts	-8.83646
▁flowers	-8.83821
▁criteria	-8.83886
▁everyone	-8.8391
▁followed	-8.84068
▁Print	-8.84295
▁KEY	-8.84382
▁minimum	-8.8448
▁days	-8.8466
▁doctor	-8.84764
▁;;	-8.84886
"`	-8.84897
get	-8.85097
▁anything	-8.85379
▁Nose	-8.85388
▁someone	-8.85416
▁e	-8.85799
▁products	-8.8584
▁stopped	-8.85841
▁fish	-8.86105
]->(	-8.86157
▁users	-8.86242
▁walk	-8.8627
▁forest	-8.86325
:")	-8.86383
no	-8.86434
▁Foot	-8.86494
▁usage	-8.86588
▁slide	-8.86688
▁Spot	-8.86981
▁illness	-8.86994
▁Handling	-8.87003
▁nails	-8.8702
▁As	-8.87173
▁weather	-8.87479
▁distance	-8.8785
▁showed	-8.8786
▁bias	-8.8792
▁book	-8.88068
▁determines	-8.88089
▁tell	-8.88324
result	-8.88344
▁task	-8.8903
▁Do	-8.89091
When	-8.89129
▁okay	-8.89208
Do	-8.89214
▁top	-8.89241
▁replied	-8.89277
▁listen	-8.89279
▁most	-8.89482
▁quickly	-8.89536
▁call	-8.89589
▁clothes	-8.8977
▁necessary	-8.89796
▁head	-8.89913
ll	-8.89969
▁Bob	-8.9006
▁Sneezing	-8.90257
)-[:	-8.90419
▁catch	-8.90828
Name	-8.90964
▁(!	-8.90991
▁Jane	-8.9113
▁might	-8.91131
▁fly	-8.91163
▁evaluate	-8.91208
▁falls	-8.91325
al	-8.9143
▁points	-8.91492
▁threshold	-8.91506
▁option	-8.91518
▁truck	-8.91751
▁package	-8.91759
User	-8.91925
▁wind	-8.91972
int	-8.91985
▁regular	-8.92052
((	-8.92099
':	-8.92141
▁blue	-8.92159
▁actual	-8.92306
Ben	-8.92787
▁greater	-8.93069
▁SET	-8.93194
▁Weather	-8.93196
▁row	-8.93231
▁ask	-8.9339
▁Sue	-8.93517
▁instructions	-8.93988
▁closer	-8.94016
▁watched	-8.94087
▁amount	-8.94107
▁rabbit	-8.94518
▁voice	-8.94673
▁Bathing	-8.951
▁strong	-8.95333
▁choice	-8.95457
Look	-8.95537
▁met	-8.95555
▁open	-8.95631
▁present	-8.95722
▁frequency	-8.95838
▁higher	-8.95917
▁professional	-8.96286
▁cold	-8.96331
▁Let	-8.96512
▁goodbye	-8.96724
▁became	-8.96802
▁mouth	-8.9681
▁bed	-8.96844
▁today	-8.96918
▁wait	-8.96994
Can	-8.97184
▁20	-8.97236
▁those	-8.9736
▁night	-8.97441
▁spaces	-8.97872
▁Nail	-8.97962
*	-8.98014
[]	-8.98324
▁travel	-8.98344
C	-8.98345
▁Next	-8.98405
▁curious	-8.9847
S	-8.98487
▁against	-8.98632
▁equal	-8.98822
▁regarding	-8.98929
▁taken	-8.98949
▁exit	-8.99053
▁doing	-8.99104
▁Eye	-8.9918
▁eye	-8.99182
▁err	-8.99191
Dry	-8.99217
python	-8.99311
▁last	-8.99482
▁requirements	-8.99538
▁customer	-8.9978
▁otherwise	-8.99787
▁must	-8.99787
▁["	-8.99957
▁JOIN	-9.00152
▁practices	-9.00181
▁2.	-9.00242
▁Travel	-9.00541
▁IF	-9.00541
check	-9.00792
▁DEFAULT	-9.00898
▁instead	-9.01057
▁further	-9.01061
▁1.	-9.01202
▁recommend	-9.01217
▁close	-9.01274
▁contains	-9.01419
She	-9.01587
ly	-9.01789
▁blocks	-9.0197
▁potential	-9.0209
▁);	-9.02148
▁field	-9.02173
▁recommendations	-9.02195
▁block	-9.02525
▁boat	-9.0273
▁cake	-9.02899
▁requirement	-9.03119
▁order	-9.03144
item	-9.03177
▁simple	-9.03291
▁humidity	-9.03586
▁description	-9.03766
▁passed	-9.03781
▁stop	-9.03783
ID	-9.03875
▁Add	-9.04032
▁invalid	-9.04066
[:	-9.04152
▁problem	-9.04158
Type	-9.04239
b	-9.04278
▁floss	-9.04525
For	-9.04609
▁reached	-9.04746
▁course	-9.04809
▁anymore	-9.04945
▁kitchen	-9.05114
▁heart	-9.05176
▁doll	-9.05534
';	-9.05538
rust	-9.05584
▁>>	-9.05623
▁nail	-9.05685
false	-9.05687
▁likes	-9.05755
▁others	-9.05768
switch	-9.05774
▁Handwashing	-9.05903
▁calculated	-9.06
▁engineers	-9.06042
▁Preventing	-9.06303
This	-9.06311
▁queries	-9.06376
▁cost	-9.06378
▁please	-9.06515
▁left	-9.06519
ups	-9.06736
is	-9.06755
▁helped	-9.07096
▁To	-9.07117
▁No	-9.07229
▁full	-9.0747
▁Calculates	-9.07488
▁touch	-9.0765
▁near	-9.07712
▁own	-9.07829
▁simply	-9.07866
▁includes	-9.07931
▁fell	-9.08088
dry	-9.081
▁t	-9.08123
▁Can	-9.08584
▁glad	-9.08667
▁game	-9.0872
▁rating	-9.0878
▁paper	-9.08818
▁medical	-9.0884
▁happened	-9.08856
▁x	-9.08927
▁matches	-9.08963
typescript	-9.09238
▁Example	-9.0952
▁Media	-9.09576
▁jumped	-9.09584
▁grabbed	-9.0961
▁rock	-9.09614
▁adventure	-9.09659
▁Social	-9.09684
▁types	-9.09834
▁10	-9.09991
▁needs	-9.10059
▁That	-9.10123
▁[]	-9.10182
');	-9.10183
▁am	-9.1026
▁object	-9.10527
fmt	-9.10557
▁selected	-9.10569
▁Loop	-9.10613
:",	-9.10909
▁times	-9.11071
▁relationship	-9.11133
▁cry	-9.11263
▁Security	-9.11356
▁learn	-9.11453
▁really	-9.11481
▁maximum	-9.11625
▁python	-9.11639
▁thing	-9.11774
▁yummy	-9.11798
▁minutes	-9.11847
▁grass	-9.11895
▁shouted	-9.11987
▁realized	-9.12078
▁worry	-9.12291
▁ready	-9.12427
▁dress	-9.12428
']	-9.12465
▁Sarah	-9.12497
▁soft	-9.12513
▁story	-9.12539
▁elseif	-9.12574
▁kids	-9.12585
▁foot	-9.12663
▁bunny	-9.12771
▁Main	-9.12891
▁bash	-9.12914
▁birds	-9.13191
▁watch	-9.13285
Score	-9.13432
▁4	-9.13566
▁Determines	-9.13624
▁taking	-9.13758
▁world	-9.13903
▁What	-9.14033
▁air	-9.14116
▁checking	-9.14378
▁basic	-9.14411
▁Output	-9.14412
patient	-9.14414
▁thoroughly	-9.14418
x	-9.14577
▁wet	-9.14786
▁mum	-9.14806
▁bit	-9.15079
▁sees	-9.1519
▁favorite	-9.15369
▁bright	-9.1543
▁s	-9.15453
▁ORDER	-9.15481
▁body	-9.15637
▁continue	-9.15807
Suddenly	-9.1582
▁Checks	-9.15879
condition	-9.15927
▁Everyone	-9.15989
▁why	-9.16379
▁Education	-9.16716
new	-9.16787
Hello	-9.16909
▁details	-9.16939
▁handwashing	-9.17102
:\	-9.17324
▁associated	-9.17343
(*)	-9.1737
▁think	-9.17482
▁PRIMARY	-9.17489
▁ate	-9.17536
▁max	-9.17538
▁MERGE	-9.17556
▁healthy	-9.17605
▁once	-9.17938
▁due	-9.17966
▁coming	-9.18064
▁Dad	-9.18296
▁seen	-9.183
▁multiple	-9.18328
Level	-9.18416
▁began	-9.18471
▁carefully	-9.18499
of	-9.18514
▁move	-9.18535
▁");	-9.18539
▁himself	-9.18639
javascript	-9.18668
▁visit	-9.18677
▁displays	-9.19122
▁patients	-9.19149
▁children	-9.19376
▁df	-9.19658
▁following	-9.1967
())	-9.19782
Wow	-9.20058
▁height	-9.20149
count	-9.2027
▁bathing	-9.20303
▁added	-9.20333
▁getting	-9.20378
▁INTEGER	-9.20565
▁Regular	-9.20566
▁medium	-9.20698
Don	-9.20803
▁pond	-9.20862
▁seconds	-9.20909
▁exists	-9.20931
▁changes	-9.20935
▁finally	-9.21392
▁sneezing	-9.21427
v	-9.21565
▁tired	-9.2178
▁Shopping	-9.21986
▁pick	-9.22016
▁Online	-9.22052
▁apply	-9.22186
▁returned	-9.2234
▁scan	-9.22347
▁instance	-9.2238
▁accordingly	-9.22452
So	-9.22501
Data	-9.22622
▁cool	-9.22632
▁WITH	-9.2283
▁java	-9.22848
Y	-9.2285
▁relationships	-9.22962
▁scores	-9.22982
▁hopped	-9.23115
price	-9.23159
▁skin	-9.23255
▁solution	-9.23294
▁Name	-9.23301
▁mouse	-9.23319
▁including	-9.23341
▁parents	-9.2336
▁below	-9.23449
str	-9.23476
▁Finance	-9.23542
▁floor	-9.23586
▁funny	-9.23626
▁security	-9.23738
▁engineer	-9.23848
▁ID	-9.23957
▁Hands	-9.24027
▁Updates	-9.24069
endl	-9.24071
▁Joe	-9.24079
ve	-9.24244
▁content	-9.24272
▁job	-9.24305
▁Fitness	-9.2432
▁Clothing	-9.24331
▁driver	-9.24494
▁Avoiding	-9.24508
▁according	-9.24552
▁shampoo	-9.24559
▁flower	-9.24616
▁parameters	-9.2469
▁avg	-9.24701
temperature	-9.24801
John	-9.24852
▁Oral	-9.24862
▁waved	-9.24892
▁test	-9.2534
▁response	-9.25455
▁green	-9.25471
▁Managing	-9.25478
▁algorithm	-9.25483
▁lesson	-9.25522
privacy	-9.25545
F	-9.25725
▁yellow	-9.25784
▁Lila	-9.25809
er	-9.26091
▁surprise	-9.26163
▁same	-9.26259
HAS	-9.26287
▁dirty	-9.26452
▁};	-9.26533
▁worked	-9.26651
▁Table	-9.26769
▁True	-9.26933
▁location	-9.27254
▁lady	-9.27271
▁Transportation	-9.27295
N	-9.27298
▁cars	-9.27377
▁hot	-9.27409
▁hold	-9.27723
▁3.	-9.27825
▁\	-9.27864
Use	-9.27935
▁Now	-9.28015
▁schema	-9.28034
▁There	-9.28109
▁User	-9.28205
▁options	-9.28225
▁prints	-9.28377
temp	-9.28395
▁Organization	-9.28725
▁follow	-9.28826
3	-9.29023
▁cried	-9.29282
bin	-9.29469
value	-9.29576
▁Tommy	-9.29601
▁mut	-9.29697
▁Benny	-9.29715
▁considered	-9.2974
u	-9.29857
▁towards	-9.2996
▁Daisy	-9.30003
▁((	-9.30317
▁reliable	-9.30542
gender	-9.30725
▁remembered	-9.30795
▁rain	-9.30861
▁light	-9.30883
▁social	-9.30906
▁trees	-9.30919
▁morning	-9.30972
▁held	-9.30999
▁rest	-9.31007
Medium	-9.31026
----------------	-9.31081
julia	-9.31174
▁hole	-9.31212
▁understand	-9.3122
▁lost	-9.31229
bias	-9.31251
▁indicate	-9.31337
▁cleaned	-9.31432
▁butterfly	-9.31446
▁constants	-9.31465
▁Tracking	-9.31473
▁window	-9.31564
▁updates	-9.31599
▁ice	-9.31888
▁hours	-9.31958
▁professionals	-9.31965
Anna	-9.32023
▁individual	-9.32064
▁since	-9.32179
▁happily	-9.32404
://	-9.3243
num	-9.32454
▁feet	-9.32544
▁wished	-9.32599
▁fitness	-9.32895
▁normal	-9.32918
("-	-9.32955
▁"*	-9.33189
▁year	-9.33267
▁hear	-9.33478
▁buy	-9.33516
▁advice	-9.33525
▁wrong	-9.33601
▁min	-9.33622
▁varchar	-9.33782
▁Else	-9.33801
▁1)	-9.33827
▁finished	-9.33899
Her	-9.3404
▁2)	-9.34154
▁factors	-9.34263
df	-9.3447
▁far	-9.34704
▁contact	-9.34795
Mommy	-9.34842
▁*/	-9.34882
▁throw	-9.35074
Your	-9.35106
length	-9.35133
▁brother	-9.35231
▁However	-9.35344
▁issues	-9.35394
▁herself	-9.35432
TMs	-9.35555
▁surprised	-9.35563
▁friendly	-9.35707
▁highest	-9.35775
▁sat	-9.35824
▁wants	-9.35859
▁tasks	-9.35876
▁raise	-9.35959
▁makes	-9.35971
▁Return	-9.36278
▁access	-9.36653
▁properly	-9.36666
▁Math	-9.36669
▁COUNT	-9.36688
▁EXISTS	-9.3683
▁Returns	-9.36854
▁climb	-9.3707
▁null	-9.37196
▁wear	-9.37283
▁Sally	-9.37308
▁dark	-9.37391
▁log	-9.37423
total	-9.37498
▁enjoyed	-9.37652
▁regularly	-9.37724
▁sound	-9.37931
▁args	-9.38013
▁y	-9.38073
▁#!/	-9.38443
▁?	-9.38498
▁hat	-9.38638
"})	-9.38665
Good	-9.38757
64	-9.38796
ReadLine	-9.3902
▁END	-9.39114
▁DESC	-9.39324
Person	-9.39347
▁able	-9.39521
▁baby	-9.3969
▁point	-9.39734
▁THEN	-9.39737
▁few	-9.39925
▁Input	-9.40218
▁treatment	-9.40233
▁oral	-9.40237
ruby	-9.40237
▁broken	-9.40293
▁eating	-9.40307
▁delicious	-9.40421
▁shoes	-9.4056
8	-9.40674
▁poor	-9.40855
▁INTO	-9.4104
go	-9.41053
▁stick	-9.41166
▁brushing	-9.4135
▁prompts	-9.41377
▁reach	-9.41433
▁expression	-9.41528
iostream	-9.41533
▁18	-9.41716
▁swing	-9.41728
▁wearing	-9.41738
expert	-9.42003
▁join	-9.42018
());	-9.42103
▁immediately	-9.42282
▁picture	-9.42403
▁desired	-9.42425
cin	-9.42651
▁alone	-9.42843
▁words	-9.4289
Of	-9.42983
▁agreed	-9.43105
▁Javascript	-9.43159
▁tall	-9.43176
▁schedule	-9.43183
▁Additionally	-9.43291
▁cream	-9.43349
])	-9.4337
Extreme	-9.43403
▁detected	-9.43484
▁across	-9.43707
▁speed	-9.43775
▁filled	-9.43861
In	-9.43868
Tim	-9.43878
▁sleep	-9.43943
▁trying	-9.43984
▁washed	-9.44076
After	-9.44083
▁";	-9.44133
='	-9.44184
▁frog	-9.44244
▁part	-9.44524
As	-9.44672
h	-9.4472
▁[[	-9.44887
▁duration	-9.44905
▁nil	-9.44988
▁local	-9.45089
=$(	-9.45136
▁colors	-9.45286
▁Run	-9.45431
Time	-9.45486
})	-9.4551
▁leave	-9.45528
▁('	-9.45568
▁arrived	-9.45651
▁Perform	-9.4579
▁bag	-9.45804
title	-9.46005
▁1:	-9.46052
calculate	-9.46055
▁retrieve	-9.46079
▁wonderful	-9.46234
▁column	-9.46551
▁books	-9.46595
▁clothing	-9.46616
▁expected	-9.46664
Wash	-9.46743
▁allows	-9.46841
▁decisions	-9.46999
▁format	-9.47046
"))	-9.47048
▁clause	-9.47057
the	-9.47212
▁category	-9.47375
▁week	-9.47477
▁Planning	-9.47483
▁analyze	-9.47544
}`);	-9.47682
▁map	-9.47808
]-(	-9.47994
▁gone	-9.48014
medium	-9.48049
▁functions	-9.48148
▁Maybe	-9.48209
.";	-9.48368
▁sweet	-9.48414
▁sick	-9.48456
▁ruby	-9.48547
));	-9.48726
▁nothing	-9.48749
▁"-	-9.48843
().	-9.48898
▁white	-9.48962
!");	-9.4918
▁pass	-9.49187
▁continued	-9.49269
▁responses	-9.49275
▁sometimes	-9.49392
▁already	-9.49407
▁asks	-9.49565
▁pink	-9.49674
▁ethical	-9.4993
rate	-9.49964
▁hill	-9.50193
▁round	-9.50473
▁wish	-9.50523
▁Billy	-9.50577
▁Your	-9.50638
responsibility	-9.50749
▁jump	-9.50843
▁Initialize	-9.50893
(),	-9.5097
▁single	-9.51134
match	-9.514
▁stayed	-9.51429
▁cut	-9.51446
:");	-9.51565
▁30	-9.51806
▁#{	-9.51812
csv	-9.51845
▁second	-9.51898
▁require	-9.5201
}"	-9.52054
▁///	-9.52239
answer	-9.52258
Expert	-9.52359
▁everything	-9.52476
▁transformation	-9.52486
▁("	-9.52514
▁dinner	-9.52684
▁leaves	-9.5273
▁forgot	-9.5289
▁zero	-9.53158
▁turned	-9.53188
▁WHEN	-9.53316
▁""	-9.53372
com	-9.53398
▁temp	-9.53435
▁All	-9.53435
hand	-9.53459
▁scary	-9.53518
for	-9.53542
Error	-9.53705
▁grade	-9.53729
▁beach	-9.53808
▁mode	-9.53818
symptoms	-9.53902
Sara	-9.5394
▁won	-9.53943
▁ride	-9.53971
▁runs	-9.53972
▁False	-9.53989
▁d	-9.54367
▁beginner	-9.54433
▁Clean	-9.54663
Count	-9.54668
▁deep	-9.54837
▁plan	-9.5488
▁entry	-9.54907
▁Date	-9.55011
Keeping	-9.55041
message	-9.55043
▁VALUES	-9.55152
▁gets	-9.55158
status	-9.55364
▁Molly	-9.55418
amount	-9.55799
▁fire	-9.55851
▁media	-9.56117
▁puppy	-9.56138
▁amazing	-9.56189
▁")	-9.5629
▁pictures	-9.56356
▁random	-9.56436
▁]	-9.56488
`);	-9.56509
▁Read	-9.56584
▁original	-9.56744
▁hungry	-9.56786
▁train	-9.56919
▁measures	-9.56938
▁attention	-9.56944
▁school	-9.57013
▁Wash	-9.57014
▁sugar	-9.57068
▁trip	-9.57214
▁cookies	-9.57217
▁nested	-9.57238
▁Health	-9.573
Okay	-9.57439
▁prevent	-9.57778
▁spent	-9.57913
To	-9.57954
▁climbed	-9.57986
▁strings	-9.57991
▁grandma	-9.58171
▁laugh	-9.58403
▁free	-9.58642
▁records	-9.58701
▁group	-9.59105
▁Scanner	-9.5923
&	-9.59231
▁alcohol	-9.59386
▁Nails	-9.59443
▁side	-9.59546
▁moment	-9.59713
▁IN	-9.59737
▁money	-9.59803
▁(:	-9.59862
▁post	-9.60205
▁mess	-9.60275
▁talk	-9.60302
▁organization	-9.60439
▁resulting	-9.60562
▁IS	-9.60577
▁pieces	-9.60696
▁arguments	-9.60816
▁bowl	-9.60995
▁Amy	-9.61035
▁twice	-9.61039
▁squirrel	-9.61043
▁u	-9.61297
..."	-9.614
safety	-9.61423
▁duck	-9.61423
▁listened	-9.61509
▁stored	-9.61633
sh	-9.61646
Based	-9.61679
▁touched	-9.61682
▁Call	-9.61726
▁procedure	-9.62023
▁particular	-9.62055
▁thank	-9.62214
("%	-9.62286
▁allowed	-9.6233
▁...	-9.62333
▁4.	-9.62372
▁property	-9.62413
and	-9.62442
Timmy	-9.62498
▁1;	-9.62577
▁sum	-9.62645
▁smiles	-9.62661
▁INSERT	-9.62667
▁adding	-9.62681
▁modify	-9.62823
▁account	-9.62842
▁mother	-9.62897
▁fix	-9.62961
▁education	-9.63042
▁sit	-9.63069
▁strange	-9.63094
▁element	-9.63159
`;	-9.63312
Choosing	-9.6336
has	-9.63363
double	-9.63425
▁perfect	-9.63505
▁performed	-9.63509
▁child	-9.6389
public	-9.63957
▁fall	-9.64008
1.	-9.64037
▁ValueError	-9.64082
Maybe	-9.64126
▁party	-9.64136
▁100	-9.64183
Cleanliness	-9.64238
▁sanitizer	-9.64285
▁monster	-9.64595
▁calling	-9.64652
▁city	-9.64662
▁indicates	-9.64696
main	-9.64749
▁path	-9.64777
▁castle	-9.64832
▁warning	-9.64861
Printf	-9.65008
▁owner	-9.65029
▁cannot	-9.65127
▁topic	-9.65183
▁woods	-9.65293
text	-9.65313
},	-9.65349
At	-9.6549
file	-9.65498
▁index	-9.65509
B	-9.6565
▁provides	-9.65653
java	-9.65703
▁lion	-9.65705
max	-9.6577
▁tail	-9.65799
Frequency	-9.65985
Maintaining	-9.66144
or	-9.66192
▁longer	-9.66294
▁frequently	-9.66429
▁_,	-9.66562
▁percentage	-9.66605
▁techniques	-9.66615
▁heavy	-9.66616
▁brought	-9.66654
update	-9.66761
▁system	-9.66777
SELECT	-9.66902
▁flying	-9.66944
▁relevant	-9.67058
line	-9.67164
Oh	-9.67388
▁pulled	-9.67393
(&	-9.67433
▁four	-9.67462
▁Teeth	-9.67671
▁questions	-9.67842
▁hide	-9.67862
▁activity	-9.67971
▁dictionary	-9.68024
▁later	-9.68055
read	-9.6811
▁bike	-9.68154
▁easily	-9.68181
▁assign	-9.68272
▁brush	-9.68486
▁draw	-9.68551
▁matching	-9.68685
▁joy	-9.68707
▁Items	-9.68821
weight	-9.6916
Then	-9.69182
at	-9.69236
▁amazed	-9.69322
▁expertise	-9.69347
▁waited	-9.69383
▁tight	-9.6939
▁previous	-9.6942
▁Score	-9.69482
▁moral	-9.69652
64)	-9.69701
o	-9.69839
▁space	-9.69943
Status	-9.69967
▁existing	-9.69981
▁living	-9.70316
("*	-9.70371
▁guidelines	-9.70434
▁Temperature	-9.70642
▁sign	-9.70669
▁Patient	-9.70714
▁defines	-9.70776
)-[	-9.70778
▁monthly	-9.70907
Max	-9.70919
▁experience	-9.70937
Sam	-9.71101
▁dangerous	-9.71149
▁race	-9.71151
▁outcome	-9.71314
▁Moisturizing	-9.7145
weather	-9.71452
▁moderate	-9.71461
▁dentist	-9.7155
min	-9.71651
▁GROUP	-9.7174
▁flag	-9.718
current	-9.71834
▁symptom	-9.71933
▁CSV	-9.72158
▁Water	-9.7223
▁3)	-9.72233
▁colorful	-9.72238
▁dataset	-9.72266
▁often	-9.72272
▁{"	-9.72322
▁faster	-9.72343
▁wall	-9.72363
▁goal	-9.725
▁dance	-9.72532
▁extra	-9.72684
▁Mary	-9.72773
▁empty	-9.72774
▁meet	-9.7283
▁daddy	-9.7291
▁respectively	-9.72921
▁pretend	-9.73073
▁closed	-9.73188
▁defined	-9.73192
▁remember	-9.73208
product	-9.73261
▁spread	-9.73286
w	-9.73407
▁properties	-9.73409
▁ELSE	-9.73441
▁6	-9.73448
▁sister	-9.73902
▁follows	-9.73987
▁silly	-9.7402
▁gentle	-9.74023
▁stock	-9.74062
▁sentiment	-9.74081
description	-9.74155
▁teddy	-9.74191
▁magical	-9.74577
▁change	-9.74612
▁API	-9.74626
▁size	-9.74733
([	-9.74791
▁transportation	-9.74861
▁promised	-9.74912
elif	-9.74948
▁bmi	-9.75046
▁Problems	-9.75046
rating	-9.75054
row	-9.75152
OK	-9.75192
▁exercise	-9.75205
▁Inside	-9.75217
▁suggest	-9.75292
▁tissue	-9.75426
▁problems	-9.75456
print	-9.7555
Value	-9.75572
REFERENCES	-9.75676
▁Trimming	-9.75858
▁calculation	-9.75934
trustLevel	-9.76026
▁lake	-9.76196
▁select	-9.76198
▁Protecting	-9.762
▁permission	-9.76202
number	-9.76365
▁described	-9.76367
▁thinks	-9.76442
▁bigger	-9.76457
▁h	-9.76462
▁believe	-9.76497
▁explain	-9.76615
▁area	-9.76635
▁discount	-9.76741
json	-9.76776
▁broke	-9.76817
▁slowly	-9.769
▁congestion	-9.76963
▁beginners	-9.7699
▁wouldn	-9.77062
▁60	-9.77152
▁consider	-9.77153
%	-9.77181
Hi	-9.77221
▁reduce	-9.77256
▁email	-9.77303
▁shipping	-9.77316
▁calls	-9.77427
▁payment	-9.7744
▁alert	-9.77456
D	-9.77513
▁service	-9.77544
▁touching	-9.7766
▁piece	-9.77786
▁improve	-9.77917
▁sing	-9.7812
▁mask	-9.78214
▁month	-9.78291
const	-9.78308
▁remove	-9.78324
Item	-9.78404
▁gently	-9.78411
▁positive	-9.78542
▁ears	-9.78592
`).	-9.78615
▁names	-9.78615
▁completed	-9.78652
▁sand	-9.78653
▁working	-9.78658
▁b	-9.78712
▁v	-9.78753
▁onto	-9.78788
From	-9.7893
▁dragon	-9.78946
▁precipitation	-9.79153
▁session	-9.79368
#:	-9.79395
▁common	-9.79428
health	-9.79459
▁lower	-9.79477
▁sorted	-9.79522
▁spot	-9.79575
ever	-9.79614
▁bite	-9.79708
▁esac	-9.7978
▁worried	-9.79944
▁]];	-9.79983
▁BMI	-9.80188
https	-9.80197
+	-9.80221
l	-9.80366
▁smart	-9.80388
Sure	-9.80491
▁sharp	-9.80498
▁length	-9.8054
▁Find	-9.80555
];	-9.8065
▁threw	-9.80676
▁graph	-9.80684
▁Jill	-9.80742
▁choose	-9.80785
▁online	-9.809
▁iterate	-9.80901
csharp	-9.80945
1:	-9.80971
▁"#{	-9.81013
▁contain	-9.81333
▁actually	-9.81443
▁assume	-9.81501
▁50	-9.81501
choice	-9.81528
▁feels	-9.81624
Patient	-9.81693
▁request	-9.81852
risk	-9.81925
▁fruit	-9.81954
▁namespace	-9.82003
▁turn	-9.82022
▁nasal	-9.82073
▁tooth	-9.8215
▁blood	-9.82221
size	-9.82253
List	-9.82333
▁str	-9.82392
▁interest	-9.82415
responsibilities	-9.82435
▁sort	-9.8251
▁Before	-9.82536
▁Floss	-9.82636
▁demonstrates	-9.82707
es	-9.82735
distance	-9.82755
▁candy	-9.82913
▁Doe	-9.82994
Product	-9.83024
His	-9.83143
▁reading	-9.83245
▁cause	-9.83279
▁**	-9.83366
▁among	-9.83481
▁0)	-9.83699
▁habit	-9.83722
▁practice	-9.83776
▁2:	-9.83874
▁helper	-9.83918
▁income	-9.84025
▁List	-9.84215
▁structure	-9.84411
Male	-9.84447
index	-9.84575
2.	-9.84607
end	-9.84769
▁hope	-9.84904
Why	-9.84917
▁fox	-9.84985
▁appointment	-9.85275
▁intake	-9.85341
▁INT	-9.8535
▁currently	-9.85481
▁though	-9.85958
▁setting	-9.85959
▁methods	-9.86021
▁helping	-9.86184
▁surfaces	-9.86239
items	-9.86253
Very	-9.8626
height	-9.86373
▁wasn	-9.86375
▁starting	-9.86463
▁black	-9.86464
▁tower	-9.86588
▁welcome	-9.86689
▁performing	-9.86702
▁color	-9.8675
▁Daddy	-9.86913
▁enum	-9.86917
▁stars	-9.87099
▁title	-9.8712
▁destination	-9.87178
▁Care	-9.87265
▁hoped	-9.8728
E	-9.873
▁Golang	-9.87318
▁CASE	-9.87365
▁farmer	-9.87531
▁balloon	-9.87572
▁messages	-9.87696
▁objects	-9.87707
▁music	-9.87709
"`,	-9.87715
▁track	-9.87775
M	-9.87803
determine	-9.87959
Jack	-9.88006
private	-9.88047
▁build	-9.88055
▁cover	-9.8806
▁spray	-9.88098
▁everywhere	-9.88107
NAME	-9.88122
▁vector	-9.88139
▁grateful	-9.88191
▁Set	-9.88334
▁represent	-9.88374
▁collect	-9.88407
▁7	-9.88532
▁Emma	-9.88581
▁pattern	-9.88584
▁stepped	-9.88601
care	-9.88605
▁Convert	-9.8862
▁areas	-9.88875
▁bathroom	-9.89029
.""	-9.89049
▁expenses	-9.8906
▁fairy	-9.89128
▁negative	-9.89221
▁rand	-9.89258
▁panic	-9.89478
▁chosen	-9.89516
"}),	-9.89561
▁princess	-9.89595
T	-9.89598
▁transaction	-9.89641
▁helps	-9.89668
▁separate	-9.89747
▁pain	-9.89928
▁question	-9.8994
▁dolls	-9.89953
▁quiet	-9.89982
▁apple	-9.90021
▁route	-9.90028
▁avoid	-9.90114
▁40	-9.90119
▁river	-9.90202
based	-9.90253
Consent	-9.90345
▁brown	-9.90417
▁meets	-9.90446
▁saying	-9.9049
▁swim	-9.90585
Sprintf	-9.90613
frequency	-9.90626
TMt	-9.90739
▁Public	-9.90749
▁twins	-9.90749
▁town	-9.90834
▁branch	-9.90854
▁Handle	-9.90909
▁five	-9.90978
▁{}	-9.90995
▁forget	-9.91001
▁m	-9.91019
"{	-9.9111
▁/**	-9.91252
▁fit	-9.91253
Date	-9.91291
▁stores	-9.91559
key	-9.91653
▁tissues	-9.91687
▁young	-9.91804
▁increase	-9.91806
▁treasure	-9.9192
▁dirt	-9.91931
Hygiene	-9.91992
▁conditioner	-9.92055
▁rules	-9.92073
▁cough	-9.92145
▁sets	-9.92151
▁self	-9.92173
▁explained	-9.92174
▁exam	-9.92208
▁stuck	-9.92242
▁state	-9.92336
▁animal	-9.92344
▁updating	-9.92449
▁blanket	-9.92646
▁late	-9.92664
Engineer	-9.92757
▁With	-9.92844
▁On	-9.92874
cough	-9.93064
travel	-9.93094
▁determined	-9.93117
Reliability	-9.93126
append	-9.93143
If	-9.93243
2:	-9.93304
▁bee	-9.93333
▁complete	-9.93365
▁dataframe	-9.9339
▁nearby	-9.93396
▁Some	-9.93614
▁combination	-9.93716
▁Safe	-9.93797
▁several	-9.93908
▁means	-9.93986
▁kite	-9.94005
▁fields	-9.94025
float	-9.94088
▁mouthwash	-9.94234
▁word	-9.94345
▁requested	-9.94365
▁crying	-9.94465
▁severity	-9.94477
▁Data	-9.94514
cost	-9.94523
▁holding	-9.94559
▁soup	-9.946
▁included	-9.94615
▁arm	-9.94779
error	-9.94942
▁Mama	-9.95063
▁At	-9.95109
▁drying	-9.95221
▁shopping	-9.95258
▁Replace	-9.95411
▁displayed	-9.95467
▁sea	-9.95507
▁wings	-9.95648
next	-9.9572
▁cloth	-9.95842
▁goes	-9.9592
▁inputted	-9.95944
▁integer	-9.96051
▁rows	-9.96057
Id	-9.96113
▁throughout	-9.96119
▁25	-9.96172
▁treat	-9.96185
▁65	-9.96204
INCREMENT	-9.96232
flossing	-9.96233
▁secret	-9.964
▁correct	-9.96473
▁drove	-9.96559
toilet	-9.96602
▁push	-9.96647
▁AUTO	-9.96662
▁UPDATE	-9.97066
output	-9.97089
▁Description	-9.97174
▁pet	-9.97251
▁suddenly	-9.97318
Is	-9.97329
▁incorporating	-9.97423
▁exist	-9.97468
▁fruits	-9.97504
64,	-9.97663
▁unique	-9.97694
▁Grandma	-9.97864
▁engagement	-9.98042
Their	-9.98129
▁upset	-9.98211
▁swings	-9.98279
▁history	-9.98316
▁sneeze	-9.98319
▁Product	-9.98338
▁pressure	-9.98376
▁general	-9.98441
▁machine	-9.98575
test	-9.98681
Float	-9.98752
▁pushed	-9.98764
▁mine	-9.98777
▁columns	-9.9881
▁clapped	-9.98844
▁yard	-9.98854
?""	-9.98905
2)	-9.98912
▁song	-9.99012
beginner	-9.99092
▁bring	-9.99125
▁equipment	-9.99134
▁wise	-9.99147
▁real	-9.99187
▁standard	-9.99286
▁rocks	-9.99499
▁stories	-9.99506
▁appears	-9.99543
username	-9.99652
▁replace	-9.99815
▁phone	-9.99818
▁slice	-10.0003
▁maintain	-10.0006
▁lowest	-10.0015
▁preference	-10.0017
▁bath	-10.0024
▁lunch	-10.0028
▁enjoy	-10.003
How	-10.0036
▁password	-10.0039
▁chair	-10.0045
person	-10.0046
▁Number	-10.0055
!(	-10.0065
▁seek	-10.0068
▁recent	-10.0083
▁student	-10.0085
▁contamination	-10.0089
▁owl	-10.0096
▁anyone	-10.0102
▁naughty	-10.013
▁comes	-10.0135
▁caught	-10.0141
▁missing	-10.0141
▁cheese	-10.0141
▁event	-10.0144
▁DATE	-10.0156
▁8	-10.0164
▁oil	-10.0172
▁sharing	-10.0188
echo	-10.02
▁0.5	-10.0202
▁command	-10.0215
▁Sanitizer	-10.0216
▁places	-10.0217
▁Level	-10.0218
std	-10.0224
▁sufficient	-10.0232
▁seemed	-10.0235
cleanliness	-10.0255
▁milk	-10.0267
summary	-10.0268
▁tables	-10.0271
▁adventures	-10.0288
▁exploring	-10.0312
▁street	-10.0313
▁precautions	-10.0319
▁shook	-10.0323
▁backyard	-10.0323
humidity	-10.0324
▁granted	-10.0328
▁fence	-10.0335
▁magic	-10.0341
▁bug	-10.0341
▁fabric	-10.0343
▁dropped	-10.0346
▁ways	-10.0352
▁pocket	-10.0353
▁especially	-10.0381
▁requires	-10.0392
▁cheered	-10.0405
▁gloves	-10.0411
▁orange	-10.0423
▁respective	-10.0427
▁Products	-10.043
Total	-10.0446
(10)	-10.0449
New	-10.0456
▁jar	-10.0457
▁shower	-10.0458
AINT	-10.0468
▁scenario	-10.0485
▁CONSTR	-10.0485
▁games	-10.0486
▁created	-10.0513
ear	-10.0517
▁/*	-10.0521
▁5.	-10.0531
▁noises	-10.0531
▁teacher	-10.0534
▁acceptable	-10.0542
record	-10.0553
▁constant	-10.0554
▁life	-10.0554
Cleaning	-10.0559
▁singing	-10.0564
▁categories	-10.0584
▁printed	-10.0588
▁towel	-10.0595
▁star	-10.0603
▁students	-10.0607
▁disease	-10.061
▁hugs	-10.0614
▁parse	-10.0617
utf	-10.0618
▁arms	-10.0628
▁Person	-10.0629
▁monkey	-10.0635
▁printing	-10.0636
topic	-10.0638
▁starts	-10.0645
▁Washing	-10.0651
▁turns	-10.066
▁purple	-10.0663
▁easy	-10.0665
▁Properly	-10.0673
▁dummy	-10.0676
action	-10.0677
▁elsif	-10.0681
▁julia	-10.0684
err	-10.0694
▁lonely	-10.0698
▁cin	-10.0705
handwashing	-10.0708
And	-10.0718
transform	-10.072
▁sitting	-10.0722
▁Management	-10.0726
bool	-10.0727
System	-10.0739
▁woke	-10.0746
▁Jimmy	-10.0748
▁busy	-10.0762
($"	-10.0782
▁probability	-10.0786
mb	-10.0792
▁Drying	-10.0801
?");	-10.0809
▁trustLevel	-10.0812
▁expense	-10.0822
▁apples	-10.0824
▁drink	-10.083
▁paint	-10.0831
round	-10.0832
▁asking	-10.0838
▁Mr	-10.0847
▁juice	-10.0851
▁B	-10.0855
Using	-10.0868
avg	-10.0869
▁role	-10.0882
▁Thank	-10.0882
▁building	-10.0892
▁mad	-10.0899
▁cotton	-10.0911
▁germs	-10.0918
▁enters	-10.0928
▁dream	-10.0929
▁road	-10.093
▁Coughing	-10.0933
These	-10.0941
▁yourself	-10.0941
random	-10.0945
▁fight	-10.0958
▁Sammy	-10.0959
▁cave	-10.0964
▁series	-10.0967
▁Storage	-10.0977
▁datetime	-10.0987
▁severe	-10.0997
▁comfortable	-10.1016
Bob	-10.1019
▁gift	-10.1022
▁unsigned	-10.1027
1,	-10.103
▁moved	-10.1038
▁bread	-10.1039
▁"${	-10.1048
While	-10.1063
▁Disinfecting	-10.1071
▁vegetables	-10.1075
▁sang	-10.1075
daily	-10.1082
▁swam	-10.1085
▁storage	-10.1085
▁execute	-10.1086
▁farm	-10.1096
txt	-10.1105
▁Techniques	-10.1118
▁protect	-10.1122
▁loan	-10.1138
▁Injury	-10.114
push	-10.1144
▁bus	-10.1147
▁Eyes	-10.1173
z	-10.1181
▁matter	-10.1187
▁Touching	-10.1189
location	-10.1191
as	-10.1199
Mia	-10.1208
▁bottle	-10.1213
▁wondered	-10.1214
▁pull	-10.1217
▁labels	-10.1219
Hey	-10.1224
▁sounds	-10.1232
Caring	-10.1234
▁individuals	-10.1252
▁country	-10.1258
▁pot	-10.1275
▁swimming	-10.1277
▁OR	-10.1279
▁Good	-10.128
▁ones	-10.1283
▁shapes	-10.1293
▁Spread	-10.1302
▁factor	-10.1304
▁Avoid	-10.1304
▁hit	-10.1317
len	-10.1323
▁bench	-10.1327
▁nap	-10.1327
Console	-10.1348
Price	-10.1348
▁disinfection	-10.1362
▁Germs	-10.1367
▁sunny	-10.1368
P	-10.1375
▁(1	-10.1379
path	-10.138
▁nest	-10.1382
▁Congestion	-10.1385
▁basket	-10.139
mut	-10.1392
▁design	-10.1398
[0]	-10.1409
▁15	-10.1421
Clean	-10.1424
bmi	-10.1425
engineer	-10.1432
▁happen	-10.1434
▁Soon	-10.1435
!")	-10.1447
Are	-10.145
chomp	-10.1454
▁journey	-10.1454
ci	-10.1459
▁diet	-10.1473
▁wax	-10.1483
▁edge	-10.1485
():	-10.1487
▁correctly	-10.1509
▁yet	-10.1519
▁Risk	-10.1533
▁CURRENT	-10.1536
Normal	-10.1539
▁daughter	-10.1545
▁unless	-10.1546
▁MAX	-10.1552
▁degrees	-10.1552
▁$(	-10.1562
++)	-10.1564
▁whole	-10.1564
▁decide	-10.1565
],	-10.1567
Result	-10.1589
▁__	-10.1594
▁birthday	-10.1597
▁suitable	-10.1599
▁breath	-10.16
▁fair	-10.1601
▁Nasal	-10.1602
▁trim	-10.1612
▁selection	-10.1633
days	-10.1635
▁promise	-10.1635
▁Ask	-10.1641
▁returning	-10.1644
Rating	-10.1645
▁Just	-10.1645
▁relieved	-10.1663
▁elephant	-10.1692
▁4)	-10.1694
▁bucket	-10.1694
▁($	-10.1701
.`);	-10.1702
contains	-10.1702
▁tomorrow	-10.1717
▁source	-10.1726
▁explanations	-10.1733
▁loops	-10.1734
q	-10.174
▁snow	-10.1748
▁afraid	-10.1755
","	-10.1758
▁Time	-10.1758
▁confidence	-10.1759
▁Tissues	-10.1761
▁behavior	-10.1762
▁End	-10.1762
(255),	-10.1769
▁cross	-10.1775
▁hello	-10.1775
▁odor	-10.1775
duration	-10.1777
Input	-10.1795
▁hotel	-10.1799
Sorry	-10.183
personal	-10.1833
▁ethic	-10.1835
Threshold	-10.1836
▁version	-10.1846
▁complex	-10.1848
▁exciting	-10.1848
▁library	-10.1849
▁tips	-10.1853
▁Overall	-10.1856
▁successfully	-10.1863
▁save	-10.1863
▁rainbow	-10.1866
wash	-10.1872
▁Database	-10.188
▁hour	-10.1884
▁shoe	-10.1884
▁forever	-10.1886
▁restaurant	-10.1893
▁procedures	-10.1907
▁Shared	-10.1909
There	-10.191
▁len	-10.1929
close	-10.1935
le	-10.1948
list	-10.1956
▁model	-10.1958
▁interesting	-10.1965
▁Monitoring	-10.1973
▁lead	-10.1993
▁bush	-10.1997
▁thresholds	-10.2001
▁balance	-10.2006
▁grab	-10.2011
▁huge	-10.2031
▁sunshine	-10.2051
▁l	-10.2061
].	-10.2067
▁trimming	-10.2084
▁doesn	-10.2091
fitness	-10.2091
▁non	-10.2095
ethic	-10.2102
Welcome	-10.2106
step	-10.2107
▁reminder	-10.2108
query	-10.2111
Female	-10.212
Temperature	-10.212
▁passing	-10.2123
▁extract	-10.2124
▁surface	-10.2125
Node	-10.2132
eye	-10.2134
▁horse	-10.214
▁Come	-10.2142
one	-10.2155
▁encryption	-10.2172
by	-10.2173
▁transparent	-10.2177
▁elbow	-10.219
▁write	-10.2197
▁cute	-10.2213
▁1,	-10.2216
▁UNIQUE	-10.2217
▁helpful	-10.2221
▁degree	-10.223
▁mud	-10.2231
nextLine	-10.2232
▁flight	-10.2233
▁gum	-10.2233
steps	-10.2238
▁laughing	-10.2242
▁applying	-10.2261
▁watching	-10.2291
TIMESTAMP	-10.2301
▁rust	-10.2318
▁insert	-10.2325
set	-10.2326
▁tracking	-10.2327
▁accidentally	-10.2329
▁HIGH	-10.2329
▁vehicle	-10.2334
▁Fluffy	-10.2334
on	-10.2335
Check	-10.2336
▁cup	-10.2341
Not	-10.2341
▁honey	-10.2343
`),	-10.2349
add	-10.2352
▁seat	-10.2357
use	-10.236
▁rope	-10.2385
city	-10.2388
▁How	-10.2398
'),	-10.2399
trim	-10.24
THRESHOLD	-10.2414
▁moisturizer	-10.243
start	-10.244
▁tiny	-10.244
▁LOW	-10.2448
▁clouds	-10.2448
','	-10.2459
▁creates	-10.2461
▁fixed	-10.2462
param	-10.2481
▁bought	-10.2486
▁rinse	-10.2489
▁pointed	-10.2491
response	-10.2495
day	-10.2505
Analysis	-10.2505
▁struct	-10.2511
▁DELETE	-10.2514
k	-10.2519
▁finance	-10.2521
X	-10.2527
▁carry	-10.2529
clean	-10.2532
▁activities	-10.2533
▁view	-10.2538
▁guidance	-10.2543
▁JSON	-10.255
"}	-10.2558
with	-10.2559
split	-10.257
▁Professional	-10.2577
**	-10.2589
...");	-10.2591
▁brand	-10.2593
Now	-10.2596
▁damage	-10.2596
▁FOREIGN	-10.2599
▁plane	-10.2605
display	-10.2629
▁wide	-10.2638
▁initial	-10.2641
▁allow	-10.265
▁appear	-10.2651
▁frequent	-10.2651
▁smiling	-10.2657
Lila	-10.266
▁waiting	-10.2665
results	-10.2665
map	-10.2671
▁application	-10.2671
task	-10.2672
▁company	-10.2686
▁2;	-10.2699
▁convert	-10.2701
▁whose	-10.2701
handling	-10.2704
▁receive	-10.2706
▁split	-10.2707
▁cozy	-10.273
▁large	-10.2744
▁workout	-10.275
▁achieve	-10.2754
▁simulate	-10.2758
▁button	-10.2773
▁woman	-10.2775
▁screamed	-10.2775
▁feedback	-10.2777
▁ladder	-10.2789
▁crayons	-10.2789
▁front	-10.2791
▁Rate	-10.2793
▁neo	-10.2798
▁success	-10.2807
▁profession	-10.2821
▁AVG	-10.2825
▁traffic	-10.2826
▁snake	-10.2829
handwash	-10.2831
▁card	-10.2831
▁availability	-10.2836
Int	-10.2849
equals	-10.2854
▁0,	-10.286
Task	-10.2862
▁suggested	-10.2868
▁talked	-10.2868
BathingRoutine	-10.2881
▁address	-10.2883
5	-10.2886
speed	-10.2895
Math	-10.2897
▁performs	-10.2902
▁letter	-10.2908
▁snack	-10.2914
1)	-10.2915
▁char	-10.2922
▁pd	-10.2928
▁-=	-10.2936
▁successful	-10.2938
▁proceed	-10.2943
▁danced	-10.2945
▁answered	-10.2953
▁username	-10.2953
▁checked	-10.2955
▁3:	-10.296
?(	-10.2971
sneeze	-10.2974
▁5)	-10.2983
▁goals	-10.2987
▁posts	-10.2989
▁keys	-10.2992
▁X	-10.2995
▁w	-10.3003
IN	-10.3013
▁Mum	-10.3015
▁healthcare	-10.3022
Beginner	-10.3032
▁coat	-10.3034
▁Scheduling	-10.3035
▁risks	-10.3036
▁Schema	-10.3043
▁visited	-10.3043
▁calories	-10.3049
▁Control	-10.3062
▁robot	-10.3069
▁Similarly	-10.3072
▁lenses	-10.3075
▁trouble	-10.308
J	-10.3089
▁searched	-10.309
threshold	-10.3091
▁grow	-10.3092
password	-10.3093
▁implementing	-10.3106
Finally	-10.311
▁COLLATE	-10.3118
▁tasty	-10.3118
[1]	-10.3125
ethics	-10.3132
▁shop	-10.3138
Age	-10.3142
▁Body	-10.3153
▁3;	-10.3166
▁None	-10.3175
ToiletHygiene	-10.318
▁wipes	-10.3192
timestamp	-10.32
Jane	-10.3201
]}	-10.3212
▁ducks	-10.3214
▁tools	-10.3215
Bias	-10.3224
▁tongue	-10.3225
▁seems	-10.3235
▁ethics	-10.3246
Come	-10.3247
▁timestamp	-10.3247
up	-10.325
Technique	-10.3252
}'	-10.3254
▁calculating	-10.3257
▁Smith	-10.3258
▁Extract	-10.3273
let	-10.3299
▁lucky	-10.3303
▁forward	-10.3304
▁oven	-10.3318
▁moving	-10.3319
▁remaining	-10.3327
example	-10.334
▁hospital	-10.3346
▁issue	-10.3355
Failed	-10.3357
]:	-10.3359
Get	-10.336
▁"";	-10.336
▁reason	-10.3377
▁appeared	-10.3383
▁numbers	-10.3384
▁Soap	-10.3392
food	-10.3396
▁Jen	-10.3401
▁Technique	-10.3404
▁LIMIT	-10.3415
32	-10.3435
"])	-10.3441
▁moisture	-10.3442
▁market	-10.3443
water	-10.3458
professional	-10.3465
▁smelled	-10.3477
Apply	-10.3487
▁stain	-10.3492
Great	-10.3497
▁smooth	-10.3497
▁label	-10.3499
then	-10.35
▁outcomes	-10.35
▁shining	-10.3506
email	-10.3514
▁tries	-10.3521
▁note	-10.3528
lt	-10.3532
▁Doctor	-10.3553
category	-10.3555
▁ingredients	-10.3564
▁asleep	-10.3567
Checking	-10.3568
▁visits	-10.358
▁cookie	-10.3586
▁spoon	-10.3591
nose	-10.3595
Floss	-10.3597
▁o	-10.3598
▁decimal	-10.3604
On	-10.3608
▁spotted	-10.3617
▁heat	-10.3617
security	-10.3625
▁throws	-10.363
▁Alice	-10.3634
▁Apply	-10.3646
▁mark	-10.3653
▁study	-10.3663
▁T	-10.3665
▁mind	-10.3671
"`.	-10.3673
▁responsible	-10.3675
hair	-10.3677
▁approaches	-10.3688
▁win	-10.3691
▁readline	-10.3693
▁performance	-10.3695
▁advanced	-10.3697
▁Keep	-10.37
({	-10.371
0	-10.3712
www	-10.3713
▁Task	-10.3727
Number	-10.373
Hand	-10.3737
floss	-10.3746
▁forgive	-10.3753
}:	-10.3753
▁Try	-10.3753
▁biases	-10.3754
▁export	-10.3757
▁works	-10.376
▁determining	-10.3762
Safety	-10.3767
▁king	-10.3767
▁Routine	-10.3771
▁village	-10.3778
▁giant	-10.3778
▁pile	-10.378
L	-10.3782
▁finger	-10.3783
▁considering	-10.3789
Map	-10.3795
▁effective	-10.3798
▁COVID	-10.3801
$	-10.3802
▁alongside	-10.3811
▁shell	-10.3814
▁except	-10.3816
▁finish	-10.3819
```	-10.382
▁missed	-10.3831
▁target	-10.3834
▁Emily	-10.3834
▁measure	-10.3846
▁corner	-10.3846
▁slow	-10.3847
▁loves	-10.3848
▁os	-10.3852
▁quality	-10.3861
Regular	-10.3865
▁rich	-10.3869
▁Error	-10.3874
unicode	-10.3876
▁explicit	-10.3878
▁drive	-10.3894
▁wood	-10.3896
▁80	-10.39
▁rude	-10.3909
points	-10.3913
!""	-10.3922
▁management	-10.393
▁shirt	-10.3942
▁become	-10.3962
▁applies	-10.3965
▁Course	-10.3969
▁half	-10.3976
▁compare	-10.3978
▁platform	-10.3983
year	-10.3994
cleaning	-10.3996
Index	-10.4
▁customers	-10.4002
)"	-10.4026
▁considerations	-10.4027
▁observed	-10.4029
▁Program	-10.4031
percentage	-10.4037
TM	-10.4071
▁implemented	-10.4075
▁search	-10.4076
▁!==	-10.4092
url	-10.4096
▁9	-10.4106
▁difference	-10.4111
▁blowing	-10.4116
.*;	-10.4121
▁typescript	-10.413
util	-10.4135
Transparency	-10.4137
bathing	-10.4139
▁exercises	-10.4141
▁['	-10.4142
▁5;	-10.4142
includes	-10.4163
▁lovely	-10.4168
BY	-10.4179
Trust	-10.4189
▁BOOLEAN	-10.4193
▁clever	-10.4193
doctor	-10.4208
st	-10.4213
)<-[	-10.4219
▁exposure	-10.4224
▁inform	-10.4227
dental	-10.4232
▁team	-10.4237
▁none	-10.425
grade	-10.4255
prompt	-10.4257
▁zoo	-10.4273
Condition	-10.4283
education	-10.429
▁treats	-10.4293
Poor	-10.4308
▁confused	-10.4312
clothing	-10.4312
▁ArgumentError	-10.4323
."""	-10.4323
▁Frequency	-10.4326
▁improvement	-10.4338
▁Etiquette	-10.434
▁smell	-10.4342
▁un	-10.4352
DentalHygiene	-10.4353
Responsibility	-10.436
▁ok	-10.4364
▁fine	-10.4372
using	-10.4374
▁{}",	-10.4377
▁ratings	-10.4383
R	-10.439
▁shy	-10.4397
▁past	-10.4412
dryRun	-10.4412
▁faces	-10.4418
6	-10.4419
▁Mittens	-10.4419
My	-10.4419
▁Help	-10.4421
=0	-10.4427
▁pool	-10.4435
post	-10.4436
▁});	-10.4439
▁seem	-10.4441
▁wild	-10.445
last	-10.448
▁standards	-10.4481
▁medicine	-10.4481
▁matched	-10.4482
Write	-10.4499
▁via	-10.4505
en	-10.4508
▁maybe	-10.4512
▁lay	-10.452
▁known	-10.4521
node	-10.4524
each	-10.4527
4_	-10.4528
from	-10.4535
▁processing	-10.4537
▁leaving	-10.4538
▁75	-10.4544
TO	-10.4553
customer	-10.4554
▁REAL	-10.4555
▁net	-10.4565
▁hash	-10.4567
▁limit	-10.457
▁Q	-10.457
▁themselves	-10.4572
"));	-10.4576
▁errors	-10.4584
▁12	-10.4588
li	-10.459
technique	-10.4595
▁ocean	-10.4608
By	-10.4616
▁treatments	-10.4616
▁Step	-10.4626
format	-10.463
reliable	-10.4639
▁talking	-10.464
▁storm	-10.4641
▁TIMESTAMP	-10.4642
▁tasted	-10.4648
▁Skin	-10.4649
▁covered	-10.4654
▁tears	-10.4665
▁tidy	-10.4673
Current	-10.4678
▁picnic	-10.4678
▁cow	-10.4684
▁Payment	-10.4692
Alice	-10.4694
▁hidden	-10.4697
nail	-10.4702
▁Results	-10.4712
9	-10.4714
Stop	-10.4715
tasks	-10.4718
▁male	-10.4724
▁likely	-10.4724
7	-10.4726
ness	-10.473
(){	-10.4735
▁MIN	-10.4739
-19	-10.4746
▁sticks	-10.4753
api	-10.4762
▁foods	-10.4772
▁chocolate	-10.4776
▁maintaining	-10.4778
social	-10.4784
▁Type	-10.4784
▁wipe	-10.4789
▁Age	-10.479
routine	-10.4793
▁avoiding	-10.4815
soap	-10.4821
▁meadow	-10.4822
▁moon	-10.4822
▁female	-10.4828
▁90	-10.4831
With	-10.4833
▁Jim	-10.4834
▁$"	-10.4857
▁applied	-10.4859
Message	-10.4859
▁third	-10.486
▁hid	-10.486
(`${	-10.4863
▁support	-10.4865
▁sanitizers	-10.4867
▁P	-10.4879
▁saved	-10.49
▁ensuring	-10.4912
▁remind	-10.4922
▁legs	-10.4934
▁taste	-10.4936
▁wave	-10.4938
▁shows	-10.494
All	-10.4941
▁fur	-10.495
▁shelf	-10.4951
▁pretended	-10.4955
▁ship	-10.496
▁Jenny	-10.496
▁calc	-10.4965
▁eventually	-10.4967
.*,	-10.497
▁splash	-10.4976
▁sack	-10.5004
Step	-10.5007
▁land	-10.5016
▁info	-10.5022
▁snowman	-10.5022
▁wore	-10.5023
▁haircare	-10.5025
▁involved	-10.5025
▁learning	-10.5028
▁j	-10.5028
▁base	-10.5029
▁office	-10.504
Update	-10.5043
▁Celsius	-10.5044
▁unknown	-10.5045
eq	-10.5049
all	-10.5049
▁filter	-10.5061
▁raw	-10.5063
▁shape	-10.5079
updated	-10.5087
Cost	-10.5093
▁Don	-10.5094
▁answers	-10.5098
▁outer	-10.5099
▁hiding	-10.5102
▁knee	-10.5107
media	-10.5111
▁calculations	-10.5118
▁snacks	-10.5119
symptom	-10.5127
Moderate	-10.5133
▁furry	-10.5133
▁spend	-10.5139
▁Medium	-10.5143
▁vs	-10.515
▁calm	-10.5166
▁carried	-10.517
▁carrot	-10.5184
Scanf	-10.519
▁courses	-10.5192
▁completely	-10.5195
▁puddle	-10.5201
▁trusted	-10.5202
▁neighbor	-10.5203
▁plate	-10.5203
H	-10.5204
:{	-10.5206
▁Is	-10.5222
return	-10.5226
▁couch	-10.5227
▁Student	-10.5227
▁N	-10.5239
▁Lisa	-10.5254
▁bow	-10.5265
"],	-10.5272
▁purchase	-10.5273
▁keeping	-10.5273
▁S	-10.5274
Did	-10.5287
▁mild	-10.529
▁Columns	-10.5298
▁Mock	-10.5302
var	-10.5313
▁Wet	-10.5325
parse	-10.5332
▁understood	-10.534
▁reducing	-10.5342
it	-10.5346
▁months	-10.5347
▁operator	-10.5355
▁Stock	-10.5355
Within	-10.5356
Lucy	-10.5361
Recommendations	-10.5367
▁crab	-10.5372
▁Grade	-10.538
▁smoke	-10.5386
G	-10.5396
ge	-10.5408
▁parts	-10.5408
▁math	-10.5412
▁embarrassed	-10.5416
income	-10.5418
▁exception	-10.542
▁70	-10.5426
▁inspection	-10.5433
almost	-10.5438
student	-10.5442
▁review	-10.545
▁re	-10.5453
▁Evaluate	-10.5457
▁UNWIND	-10.5457
analysis	-10.5457
▁Yes	-10.5459
▁storing	-10.5474
▁middle	-10.5497
▁subject	-10.5498
▁2,	-10.5505
moderate	-10.5514
▁sensitive	-10.5524
▁stains	-10.5524
now	-10.5531
▁concerns	-10.5544
▁Exercise	-10.5546
Daily	-10.5547
▁tweet	-10.5551
▁pizza	-10.5551
▁Not	-10.5556
▁blew	-10.557
Professional	-10.5572
▁Access	-10.558
likes	-10.5582
▁Humidity	-10.559
▁finds	-10.5592
▁presence	-10.5593
▁sanitization	-10.5594
▁verification	-10.5596
▁spider	-10.5605
▁medications	-10.5606
▁summary	-10.5606
▁confirm	-10.5606
Log	-10.5608
=(	-10.561
▁popular	-10.5611
▁Switch	-10.5612
▁carrots	-10.5619
▁priority	-10.562
▁section	-10.562
▁text	-10.5626
SERT	-10.5628
▁bottom	-10.563
▁adds	-10.5632
▁chased	-10.5633
privacyLevel	-10.5636
▁primary	-10.5644
▁q	-10.5648
products	-10.5659
▁Code	-10.5659
Organization	-10.566
▁Sometimes	-10.5665
▁CASCADE	-10.5668
"\	-10.5674
▁bugs	-10.5677
ER	-10.5685
▁jungle	-10.5688
▁modified	-10.5689
▁elements	-10.5694
▁fighting	-10.5697
▁towels	-10.5697
▁tea	-10.5699
(255)	-10.5706
▁easier	-10.5707
▁Typescript	-10.5707
▁Explanation	-10.5714
▁mountain	-10.5723
▁toilets	-10.5726
▁similar	-10.5726
▁band	-10.5729
▁outputs	-10.573
Where	-10.5731
values	-10.574
▁cook	-10.5741
▁Brushing	-10.5746
▁bacteria	-10.5749
train	-10.5751
▁excessive	-10.5751
▁landed	-10.577
▁sail	-10.5773
▁ranges	-10.5774
▁teach	-10.578
▁showing	-10.5798
▁creature	-10.5803
▁serious	-10.5806
▁monitoring	-10.581
vector	-10.5811
scores	-10.5812
▁Speed	-10.5817
▁kitten	-10.5826
▁built	-10.5827
▁rolled	-10.5829
Tips	-10.5835
▁Illness	-10.5835
▁Everywhere	-10.5847
O	-10.5855
▁lotion	-10.5858
▁assumes	-10.5862
▁foreach	-10.5872
▁Jake	-10.5874
▁SUM	-10.5876
▁kiss	-10.5876
▁stand	-10.5877
Rinse	-10.5883
▁jumping	-10.5884
▁yelled	-10.5887
▁situation	-10.5888
▁protection	-10.5891
primary	-10.5891
stdin	-10.5895
▁Invalid	-10.5903
▁UNSIGNED	-10.5906
nextInt	-10.5908
problem	-10.5909
▁writing	-10.591
▁allergies	-10.5911
▁handled	-10.5911
▁standing	-10.5913
▁Each	-10.5932
▁eggs	-10.5935
per	-10.5947
▁ashamed	-10.5947
home	-10.5952
▁cuticle	-10.5961
▁Import	-10.5963
▁selfish	-10.5967
expect	-10.5969
[2]	-10.597
▁events	-10.5975
ED	-10.5978
▁safely	-10.5979
▁involves	-10.5982
▁finding	-10.5985
▁fever	-10.5985
interest	-10.5993
Tommy	-10.5993
Be	-10.5994
▁({	-10.6006
▁locations	-10.6008
▁gray	-10.6009
shampoo	-10.6016
▁coin	-10.6028
▁creative	-10.6028
▁whale	-10.6028
▁knocked	-10.6029
▁bell	-10.6033
`:	-10.6036
!("{}",	-10.6038
True	-10.6054
▁OK	-10.6055
Description	-10.6066
Has	-10.6072
▁organized	-10.6072
!\	-10.608
▁Peter	-10.6081
▁infection	-10.6082
▁Face	-10.609
▁expensive	-10.609
Action	-10.6091
method	-10.6094
Flossing	-10.6095
visit	-10.6097
▁rocket	-10.6108
▁skip	-10.6111
Content	-10.6112
▁TV	-10.6114
Later	-10.6116
▁offer	-10.6118
▁physical	-10.6123
ation	-10.6125
▁recently	-10.6134
▁songs	-10.6144
▁investment	-10.615
▁occurred	-10.6151
▁fake	-10.6152
▁testing	-10.6154
this	-10.616
▁initialize	-10.6161
counter	-10.6162
▁bridge	-10.6171
▁'{	-10.6171
BMI	-10.6172
Topic	-10.6175
▁lines	-10.6178
Toilet	-10.6181
▁belongs	-10.6187
▁document	-10.6187
▁weekly	-10.619
▁mysterious	-10.6192
foot	-10.6198
▁formula	-10.6207
32)	-10.6209
▁fingers	-10.6212
▁nods	-10.6215
statement	-10.6215
returns	-10.6229
▁scissors	-10.6234
▁plant	-10.6235
Just	-10.624
▁services	-10.624
▁Exam	-10.626
▁*)	-10.6264
▁trips	-10.6268
=${	-10.6271
▁Rinse	-10.6272
▁creating	-10.6275
Text	-10.6288
Congratulations	-10.6292
▁Trip	-10.6293
▁branches	-10.6297
▁scale	-10.6297
Seeking	-10.6298
▁waves	-10.6305
▁image	-10.6311
▁sour	-10.6312
▁meat	-10.6312
▁chance	-10.632
▁Shipping	-10.6321
▁purposes	-10.6324
▁Together	-10.6331
▁report	-10.6335
▁stating	-10.6338
▁tightly	-10.6341
▁Count	-10.6341
▁`$	-10.6347
▁tweets	-10.6355
▁"%	-10.6356
Wear	-10.6362
▁quantity	-10.6366
▁preferences	-10.6375
▁consumption	-10.6375
}\	-10.6376
▁leaf	-10.6377
${	-10.6386
"];	-10.6388
▁received	-10.6388
▁6.	-10.6389
▁cholesterol	-10.6394
▁generate	-10.6413
▁signs	-10.6418
▁honest	-10.6418
▁peaceful	-10.642
Weight	-10.6422
▁csv	-10.6422
▁pay	-10.6428
▁lies	-10.6429
▁leg	-10.6434
Usage	-10.6439
▁stone	-10.6446
elsif	-10.6452
▁period	-10.6453
▁g	-10.6458
▁filtered	-10.6462
▁polite	-10.6463
▁fancy	-10.6464
▁"<	-10.6466
▁connect	-10.6466
▁intermediate	-10.647
▁patterns	-10.6471
▁prices	-10.6471
▁conn	-10.6473
▁fetch	-10.6482
▁necklace	-10.6486
▁figure	-10.6491
▁sparkly	-10.6507
▁100)	-10.6517
▁recorded	-10.653
▁handles	-10.6532
body	-10.6538
Contamination	-10.654
▁immediate	-10.655
->	-10.6551
▁rule	-10.6557
▁meant	-10.6562
io	-10.6568
▁managing	-10.6573
▁suggests	-10.6576
▁calendar	-10.6581
not	-10.6583
▁assigned	-10.6586
nails	-10.6592
▁chest	-10.6597
userId	-10.6606
▁Why	-10.6609
code	-10.6609
Food	-10.6613
▁appointments	-10.6615
▁temperatures	-10.6615
driver	-10.6624
▁discounts	-10.6626
Consider	-10.6629
▁spicy	-10.6636
▁spending	-10.6637
Who	-10.6642
▁Total	-10.6652
▁reviews	-10.6653
▁(0	-10.6657
hr	-10.6659
▁accepted	-10.6662
▁hop	-10.6669
▁bored	-10.6679
▁itself	-10.6682
printf	-10.6692
Student	-10.6693
▁Wearing	-10.6702
▁-1	-10.6705
▁entire	-10.6722
▁washes	-10.6722
▁prince	-10.6722
▁identify	-10.6723
▁lock	-10.6726
▁Off	-10.6731
.*	-10.6738
table	-10.674
'])	-10.6743
state	-10.6746
▁Flight	-10.6747
▁exceeds	-10.6748
▁45	-10.6751
▁knowing	-10.6755
LOW	-10.6769
▁kissed	-10.677
▁blow	-10.677
▁injury	-10.6775
Water	-10.6781
▁neither	-10.6789
▁operation	-10.6795
▁difficult	-10.6807
▁giving	-10.681
▁drew	-10.681
▁disappointed	-10.681
▁plants	-10.6811
▁recognized	-10.6812
defining	-10.6821
▁Gender	-10.6827
▁solve	-10.6828
▁libraries	-10.6832
▁frustrated	-10.6832
▁bone	-10.6836
▁irritation	-10.6838
</	-10.6839
▁Types	-10.6841
CASE	-10.6843
Method	-10.685
▁generous	-10.6853
▁regardless	-10.6855
▁Even	-10.6855
▁marks	-10.6864
3.	-10.6865
▁early	-10.6866
▁consult	-10.687
▁Enrollment	-10.6874
▁Workout	-10.688
▁rough	-10.6881
Public	-10.6885
▁</	-10.6892
factor	-10.6893
Have	-10.6894
▁Identity	-10.691
▁traveled	-10.6919
am	-10.692
▁hears	-10.6921
▁live	-10.6922
▁shore	-10.6922
▁counter	-10.6925
Would	-10.6933
▁send	-10.6933
▁lit	-10.6933
content	-10.6936
▁Verification	-10.6937
▁meal	-10.6937
gt	-10.6945
▁Right	-10.6951
an	-10.6954
▁files	-10.6955
good	-10.6955
▁Contact	-10.696
▁dryRun	-10.6962
▁taught	-10.6966
▁descending	-10.6966
▁cries	-10.6966
▁powerful	-10.6966
▁pair	-10.6968
▁rub	-10.6972
able	-10.6974
▁orders	-10.6974
▁E	-10.6975
▁messy	-10.6979
▁Little	-10.698
▁Test	-10.6982
▁Expense	-10.6983
▁FALSE	-10.699
▁examples	-10.6993
elseif	-10.6998
▁Content	-10.7001
▁Cuticle	-10.7002
▁Wind	-10.7003
▁barked	-10.7012
▁load	-10.7023
▁caterpillar	-10.7033
▁mail	-10.7033
▁lens	-10.7035
▁Johnny	-10.7039
▁sanitize	-10.704
▁laundry	-10.7041
▁Sentiment	-10.7048
Transportation	-10.7052
▁lose	-10.706
▁smoking	-10.7062
▁printf	-10.7066
oral	-10.7078
Transform	-10.7079
▁feed	-10.7079
▁Raises	-10.7082
▁feathers	-10.7091
▁Of	-10.7093
▁filing	-10.7094
question	-10.7095
▁roll	-10.7104
Personal	-10.7109
File	-10.7109
▁tape	-10.7112
join	-10.7113
role	-10.7119
Recommend	-10.7131
▁Shampoo	-10.7133
▁seeking	-10.714
▁0.8	-10.7141
▁grew	-10.7146
▁significant	-10.7146
Percentage	-10.7149
expertise	-10.7158
HIGH	-10.7159
▁GPA	-10.7163
▁Medical	-10.7165
▁excitement	-10.7169
▁potentially	-10.7175
Today	-10.7184
▁miles	-10.7187
▁minute	-10.7196
Fair	-10.7204
▁doctors	-10.7216
▁offered	-10.7218
▁transport	-10.7221
expenses	-10.7221
▁Heart	-10.7222
W	-10.7228
▁tag	-10.7229
▁whistle	-10.7233
Info	-10.7238
Carrying	-10.7238
HYGIENE	-10.7251
▁sb	-10.7251
Steps	-10.7255
▁benefits	-10.7256
▁Mouth	-10.7257
Response	-10.7257
▁Availability	-10.726
▁executing	-10.726
▁enrollment	-10.7269
▁Seconds	-10.7283
▁training	-10.7283
▁Academic	-10.7287
▁closet	-10.7289
Shampoo	-10.7291
teeth	-10.7294
heart	-10.7294
find	-10.7298
▁belong	-10.7312
▁Common	-10.7313
▁short	-10.7313
▁(${	-10.7314
▁Wipes	-10.7322
▁Clothes	-10.7328
▁stood	-10.733
▁page	-10.7332
▁CALL	-10.7333
▁Shoes	-10.7334
▁picks	-10.7337
▁Conditioning	-10.7338
db	-10.7343
CONSENT	-10.7343
▁Recommendation	-10.7344
▁older	-10.735
▁execution	-10.7354
▁Blowing	-10.7356
cerr	-10.7359
▁Be	-10.7363
▁First	-10.7374
▁chain	-10.7376
▁rather	-10.7376
▁flosses	-10.7378
▁Simulate	-10.7379
▁worm	-10.7383
▁Shaping	-10.7387
order	-10.7387
▁prompting	-10.7394
▁Queries	-10.7399
▁resp	-10.74
th	-10.7403
▁Scrubbing	-10.7409
City	-10.741
Average	-10.7414
which	-10.7414
▁Surfaces	-10.7415
▁sighed	-10.7423
▁Filing	-10.7426
▁ant	-10.7429
▁cuticles	-10.7434
▁Precipitation	-10.7434
▁Local	-10.7436
▁0:	-10.744
PersonalItems	-10.7442
▁Route	-10.7447
▁Leo	-10.7454
See	-10.7458
IS	-10.7462
ForAnalysis	-10.7464
▁DataFrame	-10.7468
▁sandwich	-10.7469
▁scrubbing	-10.7475
▁Habit	-10.7476
we	-10.7482
▁Mouthwash	-10.7483
▁fat	-10.7491
▁Outer	-10.7499
▁aren	-10.7504
▁latest	-10.7507
▁Calculations	-10.7509
▁Rinsing	-10.7511
▁Areas	-10.7514
▁mirror	-10.7518
▁template	-10.752
▁mistake	-10.7525
▁Calculation	-10.7529
▁Odor	-10.7533
▁specify	-10.7534
Recommendation	-10.7538
▁Completely	-10.7543
▁Thoroughly	-10.7544
self	-10.7544
▁bubbles	-10.7549
▁sleepy	-10.7555
os	-10.7558
Soon	-10.7558
▁manage	-10.7559
▁Dentist	-10.7563
!("{}	-10.7563
▁boring	-10.7564
▁wolf	-10.7564
▁Eyelids	-10.7564
▁Stain	-10.7567
▁URL	-10.7569
▁Area	-10.757
▁MEDIUM	-10.7571
▁tie	-10.7573
average	-10.7574
▁Susie	-10.7575
▁spin	-10.7576
▁Contamination	-10.7578
Duration	-10.7582
▁Loan	-10.7582
▁gathered	-10.759
▁balloons	-10.7597
▁Script	-10.7599
▁Guidelines	-10.7599
▁vehicles	-10.7611
▁designed	-10.7617
▁crown	-10.7622
▁Towels	-10.7623
▁Random	-10.7624
▁zip	-10.763
▁Appropriate	-10.7637
▁Eating	-10.7642
▁ring	-10.7647
Doctor	-10.765
▁playground	-10.766
▁counts	-10.7663
▁thankful	-10.7664
▁Correct	-10.7677
▁weak	-10.7678
▁append	-10.7706
▁hopping	-10.7708
▁square	-10.7713
▁chicken	-10.772
Help	-10.772
▁compared	-10.7739
▁Benefits	-10.7741
old	-10.7741
ers	-10.7746
precipitation	-10.7749
Washing	-10.7749
Add	-10.7753
▁driving	-10.776
▁notes	-10.7762
execute	-10.7773
normal	-10.7773
▁operations	-10.7777
▁bedroom	-10.7781
washed	-10.7782
▁thick	-10.7782
▁staff	-10.7784
▁Diet	-10.7789
since	-10.7793
▁Goal	-10.7794
Double	-10.7797
▁isn	-10.7803
▁tough	-10.7804
▁sanitized	-10.7805
▁Irritation	-10.7806
schedule	-10.7808
▁Vehicle	-10.7808
▁device	-10.7816
▁]]	-10.7821
organization	-10.7822
▁Better	-10.7831
▁glass	-10.7833
▁Basics	-10.7837
▁executed	-10.7838
▁paid	-10.7839
▁wrote	-10.7853
clothes	-10.7853
▁Feet	-10.7869
sum	-10.7873
hands	-10.7876
▁Hotel	-10.7877
FILE	-10.7877
▁sheep	-10.7881
▁Comfortable	-10.7882
▁emergency	-10.7883
▁Double	-10.7884
▁Fruits	-10.7889
▁adjusted	-10.789
▁Cleansing	-10.7891
▁Services	-10.7891
▁Marketing	-10.7892
Sharing	-10.7893
▁Recommendations	-10.7893
▁rainfall	-10.7893
▁grumpy	-10.7902
▁OPTIONAL	-10.7907
▁transformations	-10.791
▁Laundry	-10.7912
▁lid	-10.7916
"""	-10.7917
};	-10.7917
intermediate	-10.792
▁evaluation	-10.7927
▁Reminder	-10.794
▁Again	-10.794
▁processed	-10.7942
▁hose	-10.7944
'))	-10.7947
▁dancing	-10.7951
▁packed	-10.7953
▁Recovery	-10.7954
▁planning	-10.7955
▁drawing	-10.7956
▁Load	-10.7956
▁Encryption	-10.7959
▁Bobby	-10.7962
▁Spaces	-10.7962
▁sweetie	-10.7963
▁constraints	-10.7968
▁cage	-10.7971
▁queen	-10.7976
▁flexible	-10.7976
▁father	-10.7976
▁Respecting	-10.7976
▁Toenails	-10.7978
▁Illnesses	-10.7979
▁respect	-10.7989
▁documentation	-10.8001
▁F	-10.8002
Updating	-10.8003
▁Tongue	-10.8003
▁validation	-10.8005
▁Cross	-10.8007
Amount	-10.8007
do	-10.8011
)))	-10.8013
▁Attractions	-10.8015
++;	-10.8016
▁Investment	-10.8017
▁Item	-10.8017
▁Booking	-10.8026
▁Engagement	-10.8026
▁reminders	-10.8028
▁Vegetables	-10.8031
▁active	-10.8044
freq	-10.8045
▁"))	-10.8049
▁elderly	-10.8053
▁Mildew	-10.8058
▁Processing	-10.8062
▁mix	-10.8064
▁connection	-10.8065
▁Connect	-10.8067
▁`${	-10.8067
▁chase	-10.807
=$	-10.8074
▁comparing	-10.8076
▁Removal	-10.8079
Well	-10.808
est	-10.8081
▁shaping	-10.8083
▁rates	-10.8088
▁language	-10.8091
▁Nosebleeds	-10.81
▁lying	-10.81
▁future	-10.8101
▁client	-10.8104
▁changed	-10.8117
▁dig	-10.8125
▁glue	-10.8125
▁Itineraries	-10.8128
▁Allergies	-10.8134
▁footcare	-10.8138
▁occur	-10.8139
▁Performance	-10.8145
Mum	-10.8146
▁credit	-10.8148
▁unexpected	-10.815
▁Cybersecurity	-10.8154
▁useful	-10.8154
2,	-10.8163
▁interface	-10.8167
▁dates	-10.8176
▁Restrooms	-10.8183
▁loss	-10.8195
lower	-10.8196
▁vase	-10.8201
▁ends	-10.8208
▁schedules	-10.8215
▁alternative	-10.8215
▁bake	-10.8217
▁power	-10.8218
Rate	-10.8225
▁Rex	-10.8234
▁harder	-10.8236
▁scanner	-10.8237
▁Make	-10.824
▁engineering	-10.8243
▁preventing	-10.8249
▁cloud	-10.8253
Touched	-10.8259
Post	-10.8263
▁Shampooing	-10.8264
▁grades	-10.8274
▁wagged	-10.8277
▁Traffic	-10.8277
▁Dict	-10.8279
▁cart	-10.8283
▁entries	-10.8287
▁Today	-10.829
▁Fraud	-10.8291
Risk	-10.8295
▁canal	-10.8302
▁skipped	-10.8303
▁scalp	-10.8306
▁Discounts	-10.8307
▁Ride	-10.831
first	-10.8311
▁smoker	-10.8314
▁smaller	-10.8315
▁displaying	-10.8321
▁unusual	-10.8327
▁fresh	-10.8328
ting	-10.8331
▁Lens	-10.8331
▁knife	-10.8332
▁LEFT	-10.8332
▁Forecast	-10.8333
▁drum	-10.8336
▁business	-10.8336
▁Elbow	-10.8339
▁Others	-10.8342
Instructions	-10.8344
▁stage	-10.8347
▁scrub	-10.8347
▁handwash	-10.835
▁beginning	-10.8354
▁Detection	-10.8355
▁pie	-10.8357
▁Sick	-10.8359
▁origin	-10.8361
▁opinion	-10.8361
▁happening	-10.8366
Parse	-10.8369
▁adjust	-10.8371
▁pandas	-10.8372
boolean	-10.8376
▁Suitable	-10.8382
▁Reservation	-10.8384
▁smelly	-10.8385
▁Result	-10.8399
▁features	-10.8401
▁disinfect	-10.8405
localhost	-10.8405
▁giggled	-10.8408
Category	-10.8411
▁Covering	-10.8413
▁carrying	-10.8418
▁lift	-10.8422
▁transactions	-10.8425
history	-10.8428
▁Special	-10.843
▁eager	-10.843
▁pleased	-10.8433
▁form	-10.8433
▁notice	-10.8435
▁Topics	-10.8442
▁Market	-10.8446
Privacy	-10.8452
TRUST	-10.8452
▁coins	-10.8459
▁cypher	-10.846
▁drops	-10.846
▁Healthy	-10.846
▁gate	-10.8462
▁tiger	-10.8471
Display	-10.8473
Temp	-10.8477
▁adventurous	-10.8483
▁informing	-10.8492
▁Measures	-10.8493
▁Frequently	-10.8493
▁markdown	-10.8494
Visiting	-10.85
▁cooking	-10.8504
Intermediate	-10.8506
Foodborne	-10.851
▁article	-10.8513
Go	-10.8521
Avoid	-10.8527
▁An	-10.8529
▁rat	-10.8533
▁violations	-10.8534
Dealing	-10.854
▁ASC	-10.8541
▁Correctly	-10.8543
▁Fred	-10.8544
▁Electronics	-10.8546
Args	-10.8551
▁weird	-10.8561
▁Toothbrushing	-10.8564
▁expressions	-10.8565
mean	-10.8579
▁reference	-10.858
session	-10.8584
HandWash	-10.8585
▁oily	-10.8585
cypher	-10.8585
Private	-10.8594
ion	-10.8597
▁increased	-10.8602
▁placed	-10.8602
▁Styling	-10.8602
ING	-10.8605
male	-10.8612
Reducing	-10.8614
▁stream	-10.8626
Next	-10.863
▁Tobacco	-10.8635
▁sources	-10.8638
▁topics	-10.8641
tips	-10.8649
▁Array	-10.8652
▁Intake	-10.8655
▁nervous	-10.8665
▁loyal	-10.8667
▁drank	-10.8667
▁LIKE	-10.8668
▁Buildup	-10.8673
▁importance	-10.8673
▁counting	-10.8678
sentiment	-10.868
▁Mark	-10.868
▁Sanitizing	-10.8681
▁Sprays	-10.8684
▁character	-10.8685
▁M	-10.8687
▁Engineers	-10.8697
▁identity	-10.8703
▁earwax	-10.8705
▁Node	-10.8706
▁Equipment	-10.8719
▁Exams	-10.8729
Option	-10.8731
▁'%	-10.8733
▁fraud	-10.8736
▁balls	-10.8737
▁Odors	-10.8737
transformed	-10.8742
▁thin	-10.8747
course	-10.8748
Trending	-10.8749
▁rinsing	-10.875
▁Rose	-10.8753
▁egg	-10.8764
▁board	-10.8769
▁Fabrics	-10.8769
▁six	-10.8775
▁Budgeting	-10.878
▁Accessories	-10.8784
▁Transit	-10.8785
▁shake	-10.8791
monthly	-10.8799
▁neck	-10.88
▁nature	-10.88
▁combinations	-10.88
▁Indicators	-10.8806
▁removal	-10.8806
source	-10.8813
▁Users	-10.8813
destination	-10.8816
▁circle	-10.8819
▁url	-10.8824
▁rare	-10.8826
▁noisy	-10.8827
▁MySQL	-10.8827
▁ruined	-10.8828
▁Customer	-10.8828
▁separately	-10.883
today	-10.8834
▁jq	-10.8836
▁symbol	-10.8838
online	-10.8854
▁Price	-10.886
▁butter	-10.8862
▁visiting	-10.8863
▁inclusive	-10.8865
▁principal	-10.8876
exam	-10.888
▁caring	-10.8886
"},	-10.889
▁Start	-10.8903
▁valuable	-10.8908
▁wrapped	-10.8908
▁fluffy	-10.8908
▁wand	-10.8908
rand	-10.891
▁measurement	-10.8912
▁boxes	-10.8916
▁ahead	-10.8918
rel	-10.8921
▁advise	-10.8922
32(	-10.8942
▁Counting	-10.8943
▁chose	-10.8944
▁seeing	-10.8946
Grade	-10.8955
LowHygiene	-10.8957
▁dead	-10.8962
▁turtle	-10.8962
▁mummy	-10.8963
▁gracefully	-10.8963
▁applicable	-10.8963
licked	-10.8965
▁Earwax	-10.8968
▁visible	-10.8974
▁joke	-10.8981
Humidity	-10.899
▁DECLARE	-10.899
▁hammer	-10.899
▁juicy	-10.899
▁ugly	-10.899
▁colourful	-10.899
▁puzzle	-10.9004
▁cities	-10.9006
▁haven	-10.9006
▁nicely	-10.9007
▁Arg	-10.901
▁pairs	-10.9012
▁discovered	-10.9018
▁confirmation	-10.9024
▁contents	-10.9025
▁cavities	-10.9025
__':	-10.9027
▁fill	-10.9031
▁Calendar	-10.9032
▁meeting	-10.9036
▁wrap	-10.9037
▁sink	-10.904
}");	-10.9046
▁polish	-10.9066
▁Pricing	-10.9066
=$1	-10.9069
▁disappeared	-10.9074
▁kindness	-10.9075
▁splashed	-10.9077
▁station	-10.9079
▁Sample	-10.9094
▁lowercase	-10.9094
▁lazy	-10.91
Mama	-10.91
▁choices	-10.911
▁Disposal	-10.9111
OralHealthHabits	-10.9112
info	-10.9112
(1)	-10.9119
cat	-10.9122
▁sight	-10.9124
[$	-10.9125
▁foreign	-10.9126
etiquette	-10.9128
userInput	-10.9132
▁managed	-10.9133
▁Sugar	-10.914
==	-10.915
▁Formation	-10.9155
DISTINCT	-10.9156
▁freq	-10.9162
▁tip	-10.9164
▁pricing	-10.9167
▁requests	-10.918
▁cheerful	-10.9183
Whether	-10.9183
▁lamp	-10.9183
function	-10.9183
Clearing	-10.9184
▁Are	-10.919
▁itinerary	-10.9191
;//	-10.9194
ExtremeHygiene	-10.9197
▁suit	-10.9199
▁walks	-10.92
(6)	-10.9205
finance	-10.9208
EMAIL	-10.9211
equalsIgnoreCase	-10.9211
▁cur	-10.9213
▁lifted	-10.9214
▁Preventive	-10.9214
▁visibility	-10.9215
▁materials	-10.9235
▁Records	-10.9235
▁boats	-10.9237
▁examination	-10.9242
▁tent	-10.9245
Days	-10.9248
▁criterion	-10.9249
▁Schedules	-10.9251
K	-10.9252
V	-10.9254
cleaned	-10.9258
OnlineShopping	-10.9264
▁salad	-10.9267
▁goose	-10.9269
▁lack	-10.9271
▁sailed	-10.9271
▁-1;	-10.9272
years	-10.9274
▁Infections	-10.928
▁policy	-10.9287
Soap	-10.929
▁project	-10.9297
mode	-10.9301
▁Bella	-10.9305
▁salt	-10.9316
▁routines	-10.932
▁DateTime	-10.9323
▁deer	-10.9324
▁By	-10.9327
▁swabs	-10.9327
=1	-10.9332
▁'__	-10.9338
▁drinks	-10.9341
Visit	-10.9348
▁toothbrush	-10.9348
LEVEL	-10.9351
▁0.7	-10.9353
ie	-10.9362
▁screen	-10.9364
▁fee	-10.9364
▁holds	-10.937
▁Passages	-10.938
Molly	-10.9382
▁ancient	-10.9409
▁popcorn	-10.9409
▁removing	-10.9409
▁spun	-10.9409
foreign	-10.9411
▁tank	-10.9411
▁Ellie	-10.9413
▁0.9	-10.9415
▁mixed	-10.9416
▁player	-10.9418
▁Twitter	-10.942
▁Bobo	-10.9422
Take	-10.9423
▁pen	-10.943
▁3,	-10.943
▁construct	-10.9431
▁DISTINCT	-10.9437
▁Debug	-10.944
▁reservation	-10.9447
▁metrics	-10.9448
▁quit	-10.9449
▁corn	-10.9454
▁booking	-10.9463
▁stones	-10.9465
LowerCase	-10.9466
▁Pete	-10.9467
▁json	-10.9472
▁msg	-10.9483
▁fare	-10.9495
▁buttons	-10.9503
▁strength	-10.9512
▁ten	-10.9512
▁budget	-10.9517
▁diagnosis	-10.9523
▁pointing	-10.9524
ToInt	-10.9525
congestion	-10.9525
write	-10.9525
▁19	-10.9525
▁wake	-10.9526
▁picking	-10.9529
▁cooked	-10.9532
Determine	-10.9533
▁plaque	-10.9535
▁borrow	-10.9535
▁headers	-10.954
▁trucks	-10.9543
▁ethnicity	-10.9548
▁ending	-10.955
▁scarf	-10.9553
▁scheduling	-10.9554
▁remains	-10.9555
Spot	-10.9555
▁delicate	-10.9556
▁Or	-10.956
▁nurse	-10.9563
▁roar	-10.9567
▁breaks	-10.9572
▁quite	-10.9586
▁Utensils	-10.9587
▁highly	-10.9591
range	-10.96
Following	-10.9602
▁jealous	-10.961
stock	-10.9618
▁costs	-10.9623
3:	-10.9629
▁Track	-10.9632
▁sneezes	-10.9633
▁Ok	-10.9634
▁knight	-10.9634
month	-10.9637
▁York	-10.964
▁Calorie	-10.9641
}")	-10.9643
haircare	-10.9644
Distance	-10.9645
Course	-10.9652
dict	-10.9664
service	-10.9665
▁tap	-10.9669
▁police	-10.9669
▁Depending	-10.9669
▁breakfast	-10.9672
▁validate	-10.9672
▁COLLECT	-10.9676
▁Notifications	-10.9681
▁seal	-10.9684
Hair	-10.9686
▁rel	-10.9695
▁zoom	-10.9697
▁stops	-10.9698
10	-10.9699
transaction	-10.9705
▁banana	-10.973
▁energy	-10.9735
▁barn	-10.9742
▁intensity	-10.9742
▁userId	-10.9765
▁progress	-10.9765
us	-10.9773
▁grep	-10.9774
▁Ears	-10.9777
3)	-10.9778
▁combined	-10.9791
▁Case	-10.9792
recommended	-10.9793
12	-10.9799
)]	-10.9803
▁floating	-10.9812
▁*=	-10.9814
▁movie	-10.9815
appointment	-10.9816
▁bossy	-10.9817
▁crawled	-10.9819
Contains	-10.9825
▁24	-10.9826
▁searching	-10.9827
▁hero	-10.9828
▁act	-10.9835
very	-10.9836
}),	-10.9842
Me	-10.9847
female	-10.9851
▁buildup	-10.9852
▁Schedule	-10.9856
▁Take	-10.9857
▁loudly	-10.986
][	-10.9862
▁enjoying	-10.9862
▁moisturization	-10.988
▁'<	-10.989
▁drop	-10.989
▁allergy	-10.9906
▁hurts	-10.991
Excellent	-10.991
'));	-10.9912
▁likelihood	-10.9912
ur	-10.9918
=$((	-10.9918
ic	-10.9918
mm	-10.992
▁covering	-10.9922
▁Integer	-10.9924
▁remain	-10.9925
▁[];	-10.9927
▁measurements	-10.9927
▁distances	-10.9929
▁agree	-10.9931
▁-[:	-10.9932
▁auth	-10.9936
▁spaghetti	-10.9936
▁tinyint	-10.9939
MATCH	-10.9941
shopping	-10.9941
▁ArrayList	-10.9942
▁root	-10.9946
▁style	-10.9955
Day	-10.9963
▁harsh	-10.9966
tweet	-10.9967
wind	-10.9971
Updated	-10.9974
U	-10.9978
Factor	-10.9985
▁R	-10.9991
Pass	-10.9992
EyeHygiene	-10.9993
analyze	-10.9995
HandHygiene	-10.9996
▁famous	-10.9996
▁reps	-11.0002
database	-11.0003
goal	-11.0005
▁Weight	-11.001
▁island	-11.0012
▁fridge	-11.0014
▁moderately	-11.0023
▁incredible	-11.0027
▁belonged	-11.003
Sue	-11.0032
▁stronger	-11.0034
▁10;	-11.0038
▁tool	-11.0042
▁wonder	-11.0045
Location	-11.0046
▁clown	-11.0055
origin	-11.0055
LEVELS	-11.0059
area	-11.006
▁soil	-11.0065
▁Later	-11.0078
▁nod	-11.0082
▁characters	-11.0099
▁mildew	-11.0101
▁0.3	-11.0102
▁New	-11.0106
▁miss	-11.0115
[0].	-11.0117
▁realised	-11.0118
▁tests	-11.0123
event	-11.0123
▁directory	-11.0125
js	-11.0129
▁SERIAL	-11.0149
▁exactly	-11.0149
▁mapping	-11.0151
blood	-11.0153
▁moisturizing	-11.0155
▁generated	-11.0156
▁sent	-11.0157
calories	-11.0167
Etiquette	-11.0173
▁repeat	-11.0176
▁dividing	-11.0179
▁benefit	-11.0187
▁environment	-11.019
▁walls	-11.0193
▁proudly	-11.0201
▁gun	-11.0212
▁understanding	-11.0213
▁Teddy	-11.0216
▁transit	-11.022
▁utensils	-11.0222
▁term	-11.0241
ToLower	-11.0241
ReadKey	-11.0243
▁generic	-11.0243
▁wheel	-11.0244
▁closely	-11.025
']}	-11.0251
selected	-11.0252
▁totalScore	-11.0255
▁recommending	-11.0256
put	-11.0262
'})	-11.0265
▁simulation	-11.0274
label	-11.0276
▁knowledge	-11.0276
▁injuries	-11.028
▁shares	-11.0284
▁truth	-11.0299
Clothes	-11.0303
unwrap	-11.0303
▁dough	-11.0304
▁locked	-11.0308
▁skills	-11.0308
Gender	-11.0311
Sarah	-11.0314
OF	-11.0319
($	-11.0328
▁crayon	-11.0334
▁pig	-11.0336
discount	-11.0339
▁kid	-11.034
▁impact	-11.034
entry	-11.0342
?:	-11.0343
conditioner	-11.0354
▁experienced	-11.0356
▁bags	-11.0357
-%	-11.0364
▁dependable	-11.0366
regular	-11.0372
people	-11.0373
▁dietary	-11.0374
▁employee	-11.0379
▁styling	-11.0381
▁shout	-11.0389
▁Vec	-11.0392
"});	-11.0395
▁slipped	-11.0398
▁impressed	-11.0398
=0;	-11.0401
▁grown	-11.0403
False	-11.0405
transportation	-11.0406
▁inline	-11.0407
▁diabetes	-11.0413
putting	-11.0414
▁Store	-11.0414
▁"+	-11.0416
▁trash	-11.0416
▁Usage	-11.0422
Here	-11.0425
▁0.1	-11.043
▁favourite	-11.043
Record	-11.0431
▁clock	-11.0432
TYPE	-11.0435
YOUR	-11.0437
filename	-11.044
▁trunk	-11.0461
▁changing	-11.0461
▁clap	-11.0461
▁assistance	-11.0462
▁GraphDatabase	-11.0467
▁excellent	-11.0471
▁digits	-11.0475
pressure	-11.0476
▁diseases	-11.0478
▁opens	-11.0494
▁delighted	-11.0495
2);	-11.0501
country	-11.0501
route	-11.0506
open	-11.0506
▁observation	-11.0509
▁stairs	-11.0509
▁G	-11.0515
Order	-11.0516
...")	-11.0518
payment	-11.052
▁shells	-11.0521
▁barber	-11.0524
▁io	-11.0528
TrustLevel	-11.0531
▁Toby	-11.0534
washing	-11.0542
▁sheet	-11.0551
▁sleeping	-11.0555
▁bushes	-11.0558
▁occupation	-11.0574
▁volume	-11.0574
Required	-11.0578
▁bald	-11.0588
Discount	-11.0591
▁evidence	-11.0591
("")	-11.0594
▁cone	-11.0595
Access	-11.0601
▁bin	-11.0607
many	-11.0613
▁dogs	-11.0614
▁edges	-11.0622
▁terrible	-11.0622
▁Generate	-11.0626
▁undefined	-11.0628
▁lights	-11.063
sample	-11.063
curl	-11.0632
▁louder	-11.0632
▁restroom	-11.0634
▁hats	-11.0635
fever	-11.0641
ternary	-11.0653
▁pillow	-11.0654
▁affected	-11.0657
Customer	-11.0662
▁delight	-11.0664
▁scream	-11.0679
▁shone	-11.0685
▁persistent	-11.0685
▁subtract	-11.0686
▁vegetable	-11.0692
activity	-11.0692
▁dreamed	-11.0693
access	-11.0693
▁My	-11.0696
{"	-11.0697
None	-11.07
▁Should	-11.0712
▁dizzy	-11.0718
▁definition	-11.072
▁Ella	-11.0727
▁website	-11.0727
arr	-11.0727
Every	-11.0727
iter	-11.0731
▁joined	-11.0733
patientID	-11.0736
'],	-11.0736
▁transformedData	-11.0741
Array	-11.0743
hours	-11.0746
▁increasing	-11.0751
▁knows	-11.0757
▁waste	-11.0757
Set	-11.0759
▁separated	-11.076
consentGiven	-11.0761
▁laughs	-11.0769
INNER	-11.0783
▁wagon	-11.0783
▁disinfectant	-11.0787
▁Visit	-11.079
cream	-11.0792
llowing	-11.0794
engagement	-11.0795
▁pre	-11.0806
▁2);	-11.0815
▁DRY	-11.0815
▁analyzing	-11.0816
▁clay	-11.0816
users	-11.0818
▁natural	-11.0819
▁advised	-11.0821
▁employees	-11.0822
▁reasons	-11.0825
Some	-11.0828
hairType	-11.0829
▁reported	-11.0831
▁spreading	-11.0839
KEY	-11.0842
▁brothers	-11.0842
▁workouts	-11.0846
▁foolish	-11.0849
▁platforms	-11.085
▁demonstrate	-11.0852
▁ideal	-11.0859
▁persons	-11.0869
▁brushed	-11.087
▁Topic	-11.0874
habits	-11.0875
▁sauce	-11.0882
▁stubborn	-11.0882
▁happiness	-11.0882
▁Look	-11.0884
ity	-11.0888
▁suggesting	-11.0905
▁curr	-11.0907
▁distancing	-11.0918
▁denied	-11.0923
▁references	-11.0928
Used	-11.0936
▁suggestions	-11.094
50	-11.0947
▁adults	-11.0948
▁mole	-11.0948
▁afternoon	-11.095
▁dinosaur	-11.0951
▁4:	-11.0956
Other	-11.0959
treatment	-11.0962
▁kick	-11.0969
▁dove	-11.0972
▁optional	-11.0974
▁kinds	-11.0975
▁cursor	-11.0976
.2	-11.0984
▁swan	-11.0985
▁Variable	-11.0989
Service	-11.0996
used	-11.0998
▁forth	-11.1007
60	-11.1008
▁logs	-11.1013
▁independent	-11.1015
neo	-11.1018
space	-11.1024
▁Kitty	-11.1024
el	-11.1037
▁declare	-11.1044
▁brilliant	-11.1048
▁shine	-11.1049
▁hairy	-11.1051
▁invited	-11.1051
recommendations	-11.1051
▁formatted	-11.1052
▁letters	-11.1056
▁Condition	-11.1056
github	-11.1059
▁explored	-11.1069
An	-11.107
▁parent	-11.1074
▁exclaimed	-11.1082
▁garage	-11.1082
▁annual	-11.1084
▁vary	-11.1094
▁savings	-11.1094
▁increment	-11.1096
▁exams	-11.11
trip	-11.1101
Body	-11.1103
md	-11.1104
Range	-11.1114
▁raven	-11.1116
▁ghost	-11.1116
▁wiped	-11.112
▁dreams	-11.1121
▁solutions	-11.1121
▁detection	-11.1125
▁raced	-11.1135
($"\	-11.1135
ul	-11.1138
tissue	-11.1142
nYour	-11.1143
▁escape	-11.1145
Schedule	-11.1147
▁berries	-11.115
▁cereal	-11.115
▁Iterate	-11.115
▁gold	-11.1158
auto	-11.1163
▁glasses	-11.1163
▁13	-11.1165
▁Eventually	-11.1166
▁60)	-11.1168
▁RUN	-11.1171
▁material	-11.1172
20	-11.1185
▁poured	-11.1186
▁scare	-11.1186
▁Ducky	-11.1187
▁horn	-11.1188
▁frame	-11.1189
▁tuple	-11.1192
latitude	-11.1196
▁Sort	-11.1198
▁inventory	-11.1199
▁routes	-11.1206
WARNING	-11.1214
create	-11.1214
)");	-11.1214
▁continuing	-11.1218
▁refused	-11.1219
▁mighty	-11.122
▁begin	-11.1222
▁cleansing	-11.1226
▁brightly	-11.1226
▁saving	-11.1227
less	-11.1228
▁7.	-11.1229
org	-11.1231
▁coughs	-11.1232
▁ow	-11.1237
▁Status	-11.124
▁attraction	-11.125
▁fierce	-11.1251
▁jog	-11.1252
▁Mummy	-11.1252
Overall	-11.1253
▁coffee	-11.1258
▁30)	-11.1262
▁riskLevel	-11.1262
address	-11.1265
Integer	-11.1266
Event	-11.127
Nails	-11.127
▁interval	-11.1277
▁sell	-11.1281
▁birdie	-11.1281
▁frightened	-11.1286
▁octopus	-11.1286
▁grandpa	-11.1287
▁AUTOINCREMENT	-11.1288
▁Sophie	-11.1297
▁longtext	-11.1298
outside	-11.1301
▁sensor	-11.1303
▁prototypes	-11.1303
DataFrame	-11.1306
▁mph	-11.1307
▁obedient	-11.132
▁tobacco	-11.1323
▁imagined	-11.1324
experts	-11.1328
Key	-11.133
Print	-11.133
profession	-11.1332
null	-11.1335
▁hearing	-11.1335
Decision	-11.135
▁readings	-11.1351
FoodHygiene	-11.1355
▁whispered	-11.1357
▁spoiled	-11.1357
▁selects	-11.1362
▁Insert	-11.1362
strip	-11.1362
▁uncomfortable	-11.1363
::<	-11.1373
▁200	-11.1373
▁focus	-11.1389
▁guilty	-11.139
▁bathtub	-11.1392
▁straight	-11.1392
▁sword	-11.1397
▁notify	-11.1403
▁menu	-11.1404
▁relative	-11.1406
▁position	-11.1416
▁mentioned	-11.1427
▁7)	-11.1427
▁rose	-11.1432
▁preferred	-11.1433
▁circles	-11.1437
Try	-11.144
"*	-11.144
▁commands	-11.1444
▁Method	-11.1448
▁Y	-11.1448
**:	-11.1454
ies	-11.1461
▁verify	-11.1461
▁db	-11.1461
un	-11.1473
▁privacyLevel	-11.1475
model	-11.1476
Proper	-11.1476
▁witch	-11.1494
▁gasped	-11.1495
▁stumbled	-11.1495
▁rode	-11.1498
▁D	-11.151
▁extremely	-11.1513
▁isValid	-11.1517
▁CHECK	-11.152
▁https	-11.1523
times	-11.1529
▁impressive	-11.153
:**	-11.153
▁dull	-11.153
▁bees	-11.1531
Code	-11.1531
▁instruction	-11.1532
▁friendship	-11.1533
▁6)	-11.1533
▁patch	-11.1534
rushed	-11.1538
TIME	-11.1544
▁gel	-11.1545
15	-11.1547
▁Wear	-11.1553
decision	-11.1553
▁thoughtful	-11.1561
▁crystal	-11.1566
▁anyway	-11.1569
▁dist	-11.1571
▁Remove	-11.1573
▁pants	-11.1576
▁Stay	-11.1578
▁thread	-11.158
▁club	-11.1581
Oily	-11.1582
API	-11.1584
▁curl	-11.1591
▁Only	-11.1592
▁adult	-11.1592
▁Ann	-11.1594
75	-11.16
▁tummy	-11.1601
▁kicked	-11.1604
▁excitedly	-11.1604
▁involve	-11.1604
▁16	-11.1609
▁resources	-11.1614
SCORE	-11.1615
severity	-11.1616
between	-11.1617
tweets	-11.1617
▁delay	-11.162
▁removed	-11.1624
?")	-11.1626
▁hang	-11.1632
▁unwell	-11.1639
▁Err	-11.1641
▁Parameters	-11.1648
Routine	-11.1648
Close	-11.1648
Advanced	-11.1653
▁Mrs	-11.1653
▁houses	-11.1657
▁weeks	-11.1663
▁distinct	-11.1669
brand	-11.167
▁dishes	-11.1673
▁yogurt	-11.1673
▁hive	-11.1673
▁passes	-11.1675
▁entities	-11.1677
Exercise	-11.1682
▁unreliable	-11.1685
▁collection	-11.1689
oily	-11.1692
usage	-11.1692
pm	-11.1701
▁radio	-11.1708
▁carpet	-11.1709
▁prize	-11.1711
▁situations	-11.1713
▁playful	-11.1713
color	-11.1722
">	-11.1723
priority	-11.1725
parseInt	-11.1725
▁Assume	-11.1744
▁roof	-11.1744
]*	-11.1747
▁admired	-11.1747
▁debris	-11.1751
▁Blue	-11.1753
▁engine	-11.1757
▁failed	-11.1758
flight	-11.1758
illness	-11.1759
phone	-11.176
subject	-11.1761
Amy	-11.1762
▁sounded	-11.1762
any	-11.1772
▁notifications	-11.1773
▁trap	-11.1773
▁evening	-11.1779
▁respond	-11.178
▁alligator	-11.178
▁clumsy	-11.178
▁statue	-11.178
<>();	-11.1782
▁dried	-11.1783
▁pigeon	-11.1789
sort	-11.1795
]}"	-11.1804
recommendation	-11.1808
▁Location	-11.1811
▁beetle	-11.1816
▁helmet	-11.1826
▁lab	-11.1833
such	-11.1834
▁14	-11.1837
▁earlier	-11.1853
▁'$	-11.1856
▁Charlie	-11.1862
▁Mimi	-11.1863
Positive	-11.187
MAX	-11.1871
Once	-11.1871
mouthwash	-11.1874
▁k	-11.1879
▁forecast	-11.188
▁jolly	-11.1889
▁spoke	-11.1889
▁unchanged	-11.1889
▁cupboard	-11.1889
▁warned	-11.189
▁excess	-11.1893
▁counted	-11.1896
▁val	-11.1899
bolt	-11.1907
▁sneezed	-11.1913
Products	-11.1917
details	-11.1917
▁35	-11.1924
▁comfort	-11.1925
▁flights	-11.1926
▁anywhere	-11.1929
▁bounce	-11.193
▁Kim	-11.1933
▁Analyze	-11.194
"=>	-11.1942
Reliable	-11.1944
static	-11.1944
1)-[:	-11.1949
▁Key	-11.1953
▁userInput	-11.1955
▁inner	-11.1958
▁sudden	-11.1961
▁graceful	-11.1962
▁icy	-11.1963
▁decay	-11.1967
▁dirtiness	-11.1973
Transaction	-11.1974
wet	-11.1986
▁stranger	-11.1989
▁rescue	-11.1998
▁tub	-11.1999
▁grant	-11.1999
▁stupid	-11.2
▁File	-11.2
▁bitter	-11.2
▁instances	-11.201
▁Where	-11.2029
(3)	-11.203
▁arrays	-11.2036
▁accuracy	-11.2043
($"{	-11.2047
▁danger	-11.2053
▁notification	-11.206
▁link	-11.2066
▁painting	-11.2067
expense	-11.2068
Wet	-11.2073
▁jelly	-11.2074
▁directly	-11.2075
▁terms	-11.2075
FOR	-11.2075
▁comb	-11.2083
▁eligible	-11.2084
▁Show	-11.2085
▁Fahrenheit	-11.2087
▁Mandy	-11.2091
▁computer	-11.2093
Dad	-11.2094
▁Value	-11.2094
token	-11.2106
DecisionMaking	-11.2109
▁nosy	-11.2112
▁beak	-11.2113
▁tied	-11.2119
car	-11.212
clear	-11.212
▁growing	-11.2126
▁balanced	-11.2127
marks	-11.2127
▁dreaming	-11.213
Sally	-11.2131
▁describing	-11.2149
▁journal	-11.2149
col	-11.2149
▁fountain	-11.215
▁shocked	-11.215
▁fragile	-11.215
▁18.5	-11.2154
ForEngineer	-11.2156
▁Alex	-11.2159
Fail	-11.2159
▁collected	-11.216
▁lemon	-11.2161
washes	-11.2164
▁auto	-11.2172
▁groups	-11.2174
▁folder	-11.2176
▁Give	-11.218
▁toast	-11.2185
▁effectively	-11.2189
▁saline	-11.219
▁Bill	-11.2194
▁flossed	-11.2199
▁paw	-11.2199
▁belt	-11.2202
▁goat	-11.2203
Precipitation	-11.2206
resp	-11.221
▁Object	-11.221
▁desc	-11.2211
▁fan	-11.2214
▁airport	-11.2218
▁enormous	-11.2224
▁spinning	-11.2224
▁plastic	-11.2227
Length	-11.223
▁nostril	-11.2241
▁Mike	-11.2243
▁Tweety	-11.2271
▁desk	-11.2279
30	-11.2284
▁department	-11.229
▁Tweet	-11.2296
▁encourage	-11.2298
▁ordinary	-11.23
▁stove	-11.23
▁fireman	-11.23
▁YIELD	-11.2301
▁transforming	-11.2306
25	-11.231
▁diamond	-11.2312
▁pencil	-11.2313
▁video	-11.2318
▁pan	-11.2321
Case	-11.2321
▁quick	-11.2338
▁anxious	-11.2338
▁syntax	-11.2338
▁trumpet	-11.2338
▁jet	-11.2338
▁serve	-11.2342
rgumentException	-11.2343
▁silver	-11.2343
▁slightly	-11.2343
▁0.0	-11.2347
▁Possible	-11.2347
▁achieved	-11.235
▁4;	-11.2352
▁Cost	-11.2354
▁Exception	-11.2355
Completed	-11.236
Conditioner	-11.2365
}`	-11.2366
dir	-11.2369
Exception	-11.2372
Goal	-11.2375
▁men	-11.2379
▁network	-11.2384
▁boys	-11.2403
▁ostrich	-11.2414
group	-11.2423
▁equals	-11.2425
Available	-11.2426
▁completion	-11.2429
dentist	-11.2437
)<-[:	-11.2437
Monthly	-11.2437
replace	-11.2439
▁needle	-11.244
Symptom	-11.2441
▁Retrieve	-11.2453
▁modern	-11.2453
▁wheels	-11.2455
▁L	-11.2456
▁sweater	-11.2456
Points	-11.246
▁thinking	-11.2463
▁measured	-11.2465
▁nut	-11.2469
▁prevention	-11.247
Ow	-11.2475
floor	-11.2476
▁settings	-11.2479
▁deliver	-11.2485
▁raised	-11.2485
▁65)	-11.2487
▁10)	-11.2496
▁NOW	-11.2501
▁accessories	-11.2503
▁burned	-11.2503
'];	-11.2504
▁metal	-11.2506
Results	-11.2508
▁`_`	-11.2511
▁handed	-11.2513
History	-11.2515
▁gather	-11.2522
▁wander	-11.2523
byte	-11.253
▁compassionate	-11.2531
▁harmless	-11.2531
point	-11.2535
▁pasta	-11.2536
▁shut	-11.2537
'].	-11.2539
empty	-11.2544
fit	-11.2546
▁cm	-11.2546
▁Increase	-11.2553
▁cap	-11.2554
transport	-11.2554
▁Map	-11.256
Or	-11.2562
▁85	-11.257
▁typical	-11.2571
▁twirled	-11.2571
Weather	-11.2572
nEnter	-11.2581
▁attractions	-11.2584
▁filters	-11.2586
▁shield	-11.2588
secret	-11.2593
footcare	-11.2594
▁nuts	-11.26
▁1000	-11.2601
ite	-11.2609
▁ENUM	-11.2609
▁mailbox	-11.2609
reason	-11.261
▁sparkled	-11.2612
▁stretched	-11.2612
your	-11.2615
▁disposal	-11.262
▁sadly	-11.262
▁illnesses	-11.2621
▁trimmed	-11.2622
")){	-11.2623
ive	-11.2624
▁Would	-11.2628
contamination	-11.2633
▁cycle	-11.2635
suming	-11.2643
▁Moderate	-11.2647
aid	-11.2648
▁yarn	-11.2649
▁flour	-11.2649
>&	-11.2652
▁Category	-11.2654
▁somewhere	-11.2656
▁INDEX	-11.2656
Stay	-11.2656
▁depends	-11.2657
▁Open	-11.266
▁repair	-11.2661
other	-11.2665
▁50)	-11.2672
Mary	-11.2674
▁ordered	-11.2676
safe	-11.2679
▁march	-11.2682
▁yoga	-11.2688
▁thirsty	-11.2688
▁umbrella	-11.2689
Treatment	-11.2692
▁observations	-11.2694
▁bananas	-11.2694
▁soar	-11.27
▁collar	-11.2728
▁specifically	-11.2729
LowEducation	-11.273
▁insufficient	-11.2736
▁brushes	-11.2737
bc	-11.2738
▁bleeding	-11.2739
▁feather	-11.2742
▁City	-11.275
Warning	-11.2752
▁disposable	-11.2763
▁participate	-11.2764
▁mill	-11.2767
▁masks	-11.2769
▁Dave	-11.2775
Activity	-11.2775
ent	-11.2785
),(	-11.2785
▁pirate	-11.2785
▁passengers	-11.279
▁restaurants	-11.2795
Brush	-11.2796
odor	-11.2796
▁crawl	-11.2799
▁encrypted	-11.2807
▁summer	-11.2809
▁filthy	-11.2811
▁wishes	-11.2811
dist	-11.2815
▁trending	-11.2817
val	-11.2822
▁badly	-11.2828
▁drinking	-11.2831
▁Very	-11.2832
target	-11.2833
conditions	-11.2838
▁hasn	-11.2838
ch	-11.2839
▁Relationship	-11.2846
▁DECIMAL	-11.2848
▁flashlight	-11.2848
▁sandwiches	-11.2849
▁caution	-11.2852
▁attic	-11.2853
▁university	-11.2853
Continue	-11.2857
▁painted	-11.2858
▁monkeys	-11.286
▁lollipop	-11.2865
▁Maximum	-11.2868
▁difficulty	-11.287
Insufficient	-11.2873
Open	-11.2874
▁Comments	-11.2874
reliabilityScore	-11.2874
▁afterwards	-11.2874
▁limits	-11.2877
word	-11.2887
fabric	-11.2889
▁corresponds	-11.2891
▁stack	-11.2892
▁Brown	-11.2892
▁obtained	-11.2892
Symptoms	-11.2896
▁cipher	-11.29
pow	-11.2901
Blood	-11.2903
▁pumpkin	-11.2906
▁accessory	-11.2911
▁dryness	-11.2911
▁Action	-11.2926
▁tomato	-11.2928
▁advising	-11.2929
▁butterflies	-11.2929
▁camera	-11.2934
▁fuel	-11.2939
▁envelope	-11.2946
▁gear	-11.2947
▁persist	-11.2947
option	-11.295
▁jacket	-11.295
▁cleaner	-11.2951
Eye	-11.2954
▁slid	-11.2955
▁listening	-11.2956
▁stuff	-11.2956
DATE	-11.2962
▁TRUST	-11.2963
▁improving	-11.2969
▁hung	-11.2969
▁Close	-11.297
▁massage	-11.2971
LowHandling	-11.2977
▁approved	-11.2985
▁practiced	-11.299
▁stretch	-11.2994
▁guard	-11.2996
basic	-11.2996
▁CONSENT	-11.3
▁rug	-11.3011
▁hay	-11.3013
18	-11.3018
shipping	-11.3026
▁caused	-11.3031
[1])	-11.3033
▁feature	-11.304
▁failure	-11.304
▁Who	-11.3041
▁"__	-11.3046
▁decorate	-11.3046
▁shown	-11.3047
▁iron	-11.305
Yay	-11.3051
ant	-11.3053
▁Dirty	-11.3053
▁exceeded	-11.3053
▁pale	-11.3058
▁otter	-11.3069
▁decrease	-11.3073
select	-11.3075
▁curly	-11.3075
RELIABILITY	-11.3078
quantity	-11.3078
required	-11.3079
▁protective	-11.308
Health	-11.3085
)){	-11.3086
WindSpeed	-11.3091
▁circumstances	-11.3092
▁32	-11.3096
exercise	-11.3097
▁Other	-11.3097
hour	-11.3099
▁5,	-11.31
▁HTTP	-11.3103
▁nobody	-11.3105
Clothing	-11.3106
▁shark	-11.3111
▁twig	-11.3112
Drying	-11.3113
Ear	-11.3121
▁percent	-11.3128
EarHygiene	-11.3128
Calculate	-11.3131
▁dust	-11.3135
▁careless	-11.3141
▁growth	-11.3144
▁rec	-11.3147
dirty	-11.3155
▁Expert	-11.317
={	-11.3174
▁parrot	-11.3175
▁impatient	-11.3175
▁shaking	-11.3175
▁conditionals	-11.3176
(2)	-11.3177
>"	-11.3177
▁(!(	-11.3177
▁seven	-11.3177
Seek	-11.3182
▁Column	-11.3183
Present	-11.3184
▁clearing	-11.3188
HandWashing	-11.319
▁pack	-11.3193
[3]	-11.3194
▁Conditioner	-11.3195
▁bulb	-11.3198
Negative	-11.3199
▁chew	-11.3206
▁mop	-11.3211
patients	-11.3212
▁son	-11.3213
▁kangaroo	-11.3217
Engineering	-11.322
▁sofa	-11.3221
▁bent	-11.3223
▁reports	-11.3223
▁lifestyle	-11.3223
▁prefer	-11.3225
▁Treatment	-11.3226
▁dryer	-11.323
▁vec	-11.323
▁mistakes	-11.3245
plenty	-11.3259
▁validity	-11.3261
▁supply	-11.3262
▁prob	-11.3262
▁marked	-11.3266
habit	-11.3267
▁11	-11.327
Title	-11.3272
▁ratio	-11.328
NULL	-11.3285
while	-11.3288
▁thrown	-11.3292
▁uncle	-11.33
▁Information	-11.3301
▁wing	-11.3303
Q	-11.3304
▁worth	-11.3306
▁windows	-11.3309
▁however	-11.3312
▁cricket	-11.3321
▁iteration	-11.3321
▁1]	-11.3322
MEDIUM	-11.333
▁scheduled	-11.3332
▁guess	-11.3336
Line	-11.3348
Items	-11.3352
▁critical	-11.3363
}%	-11.3368
▁envious	-11.3385
▁explanatory	-11.3385
▁intelligent	-11.3385
▁gorilla	-11.3386
▁assert	-11.339
▁shade	-11.3399
ver	-11.3403
+"	-11.3408
▁neat	-11.3412
▁100;	-11.3425
▁thunder	-11.3428
▁BEGIN	-11.343
▁Inform	-11.3432
▁production	-11.3433
▁enumerate	-11.3438
Remember	-11.3441
Stock	-11.3443
▁./	-11.3445
▁hashtags	-11.3446
45	-11.3447
▁zebra	-11.3449
▁bandage	-11.3454
▁drawer	-11.3454
▁shoot	-11.346
{}	-11.346
▁enthusiastic	-11.3461
▁pour	-11.3463
levels	-11.3463
▁celebrate	-11.3466
▁chasing	-11.3471
▁crane	-11.3471
▁assess	-11.3471
instructions	-11.3472
▁press	-11.3474
▁estimated	-11.3475
loc	-11.3477
▁Instead	-11.348
▁Process	-11.3482
1);	-11.3485
}]->(	-11.349
▁calorie	-11.3491
▁arrow	-11.3493
▁provider	-11.3497
itinerary	-11.3501
Moderately	-11.3504
▁choosing	-11.3513
▁shouts	-11.3513
▁rubbed	-11.3513
cmath	-11.3516
▁discomfort	-11.3517
▁facilities	-11.3518
Options	-11.3524
▁21	-11.3527
▁hoop	-11.3536
[0]}	-11.3538
Sentiment	-11.3541
highest	-11.3548
80	-11.3549
▁Both	-11.3551
▁Order	-11.3551
▁happens	-11.3552
▁>&2	-11.3557
▁wheat	-11.3557
▁ignorant	-11.3557
▁Validate	-11.3559
▁peeked	-11.3559
▁wallet	-11.3561
▁seeds	-11.3561
▁Everything	-11.3562
ar	-11.3566
platform	-11.3568
Route	-11.3568
br	-11.357
>>	-11.3574
(0,	-11.3586
smoker	-11.3588
%'	-11.359
▁aunt	-11.359
completed	-11.3592
brushing	-11.3593
▁obtain	-11.3597
>",	-11.3599
▁crazy	-11.36
▁experiencing	-11.36
▁deaf	-11.36
▁wool	-11.3611
Give	-11.3613
▁led	-11.3618
▁18)	-11.3619
▁curtain	-11.3624
▁angel	-11.3625
▁haircut	-11.3628
Joe	-11.363
ELSE	-11.3632
poor	-11.3632
Billy	-11.3633
readline	-11.3641
▁endpoint	-11.3643
▁helicopter	-11.3643
▁indeed	-11.3643
▁charming	-11.3644
▁snuggled	-11.3644
▁multiplying	-11.3645
▁pilot	-11.3647
▁(%	-11.3648
like	-11.365
▁ended	-11.3659
HeartRate	-11.366
HygieneScore	-11.3667
State	-11.367
med	-11.367
▁trains	-11.3674
▁steak	-11.3687
▁Lee	-11.3687
▁spilled	-11.3688
▁StringBuilder	-11.3688
▁await	-11.3701
▁passages	-11.3704
▁10%	-11.3704
▁*"	-11.3706
▁totalCost	-11.3708
Dr	-11.371
▁detergent	-11.3719
DRY	-11.3719
unknown	-11.372
▁0.6	-11.372
▁relax	-11.3721
▁organize	-11.3728
▁beauty	-11.3731
▁sklearn	-11.3731
▁humble	-11.3731
▁jam	-11.3732
]}";	-11.3732
US	-11.3734
▁direct	-11.3735
▁speak	-11.3741
▁TRUE	-11.3741
▁disinfecting	-11.3741
▁crack	-11.3747
▁Record	-11.3748
▁replaced	-11.375
▁Have	-11.3752
▁wire	-11.3756
Nail	-11.376
Severe	-11.3763
▁Rating	-11.3763
LIMIT	-11.3764
WHERE	-11.3764
▁maze	-11.3775
▁enabled	-11.3781
▁Grandpa	-11.3788
▁departure	-11.3793
▁slides	-11.3799
alice	-11.3809
▁Found	-11.381
▁encountered	-11.382
▁baking	-11.3822
▁longitude	-11.3824
▁helpless	-11.3829
Cover	-11.3831
▁numeric	-11.3834
can	-11.3838
[0])	-11.3842
▁lizard	-11.3844
▁Fin	-11.3849
▁fear	-11.3851
Charlie	-11.3853
left	-11.3853
▁lives	-11.3855
mask	-11.3856
▁Joey	-11.3859
cold	-11.3862
▁qualify	-11.3864
▁biggest	-11.3864
▁gloomy	-11.3864
ExtremeHandling	-11.3864
▁leaned	-11.3865
▁dish	-11.3867
▁logical	-11.3869
▁comment	-11.3871
▁Harry	-11.3872
Expense	-11.3873
▁contaminated	-11.3875
▁outdoors	-11.3879
LowEyeHygiene	-11.3883
lat	-11.3884
35	-11.3888
▁panda	-11.389
gave	-11.3898
▁cell	-11.3907
!("\	-11.391
▁makeup	-11.3913
▁Tony	-11.3914
gpa	-11.393
▁pepper	-11.3931
▁human	-11.3936
▁Mask	-11.3938
▁ticket	-11.3941
▁sed	-11.3947
▁context	-11.3951
▁adorable	-11.3953
▁thief	-11.3953
▁wealthy	-11.3954
▁cheap	-11.3955
▁backpack	-11.3955
▁Re	-11.3964
▁instruct	-11.3965
▁HTML	-11.3965
▁interestRate	-11.3967
▁sprays	-11.397
▁entering	-11.397
▁reward	-11.397
▁Normal	-11.3984
▁Post	-11.3985
▁0.75	-11.3987
Trimming	-11.3989
▁rooms	-11.3991
▁squash	-11.3998
▁financial	-11.3999
▁investigate	-11.4
▁socks	-11.4008
▁Save	-11.4008
▁getline	-11.4027
availability	-11.4033
NOW	-11.4034
▁suffer	-11.4035
▁95	-11.4037
calc	-11.4038
plan	-11.4041
dev	-11.4042
▁pony	-11.4043
▁leash	-11.4043
▁scoring	-11.4048
▁Repeat	-11.4056
▁verified	-11.4057
▁fully	-11.4059
▁\"	-11.4074
Company	-11.4076
twitter	-11.4079
▁keyword	-11.4084
curr	-11.4084
▁Engineering	-11.4084
▁palace	-11.4089
▁custom	-11.409
▁respectful	-11.41
▁Default	-11.4121
▁Enter	-11.4121
▁Required	-11.4122
▁consentGiven	-11.4123
▁60%	-11.4126
▁sentence	-11.4134
▁courage	-11.4134
▁sandbox	-11.4135
▁rice	-11.4136
▁pressed	-11.4138
▁Lola	-11.4144
▁1);	-11.4144
▁gpa	-11.4145
▁revenue	-11.4156
19	-11.4156
skin	-11.4161
▁jewel	-11.4162
▁bubble	-11.4163
)")	-11.4164
▁pretending	-11.4167
Jimmy	-11.4171
conn	-11.4177
▁usual	-11.418
▁broccoli	-11.4182
▁reverse	-11.4184
▁cutting	-11.4186
▁(1,	-11.4193
Question	-11.4198
Celsius	-11.42
coughing	-11.4202
▁parseInt	-11.4206
▁protected	-11.4213
sugar	-11.4217
Details	-11.4224
▁practicing	-11.4226
▁infections	-11.423
▁nowhere	-11.423
▁King	-11.4231
/$	-11.4233
"`).	-11.4236
.</	-11.4248
▁raft	-11.4254
▁500	-11.4255
EO	-11.4265
visits	-11.4265
▁attractive	-11.4265
▁shouldn	-11.4266
▁hurry	-11.4266
best	-11.4267
▁4,	-11.4267
▁mechanic	-11.4271
▁Tweetie	-11.4277
▁gas	-11.4279
▁bathe	-11.4282
ro	-11.4282
▁Paul	-11.4283
▁Many	-11.4292
Cough	-11.4295
▁flu	-11.4298
▁Relationships	-11.4299
▁clauses	-11.4301
▁concern	-11.4302
▁pipe	-11.4307
Procedure	-11.4309
▁clearly	-11.4312
▁tripped	-11.432
0,	-11.4324
▁educational	-11.4327
▁Average	-11.4329
▁jumps	-11.433
]->(:	-11.4333
▁towers	-11.4341
▁napkin	-11.4349
▁Will	-11.4352
▁meals	-11.4358
Trim	-11.4361
Handwashing	-11.4361
▁Steps	-11.4365
▁guitar	-11.4366
▁laser	-11.4366
▁restless	-11.4367
▁happier	-11.4368
▁Jones	-11.437
SocialMedia	-11.4372
▁guide	-11.4381
▁transforms	-11.4382
Highly	-11.4383
▁cheer	-11.4385
▁Day	-11.439
Color	-11.4392
▁exceptions	-11.4393
▁behave	-11.4396
Restaurant	-11.4404
▁Split	-11.4406
intake	-11.4406
▁steal	-11.4407
▁25)	-11.4408
▁photo	-11.4409
▁fold	-11.4411
▁basketball	-11.4413
▁trail	-11.4413
fare	-11.4414
▁shampooing	-11.4419
right	-11.4419
nDry	-11.442
▁medication	-11.4422
▁brighter	-11.4422
▁holes	-11.4424
▁H	-11.4426
▁Service	-11.4427
)}	-11.4436
▁damaged	-11.4443
▁effects	-11.4444
▁[{	-11.4445
▁film	-11.4446
▁candle	-11.4446
cholesterol	-11.4452
strconv	-11.446
▁distant	-11.446
▁coal	-11.4461
(`\	-11.4461
Re	-11.4465
im	-11.447
responses	-11.447
▁Kate	-11.4471
▁port	-11.4472
▁troubled	-11.4475
scan	-11.4475
▁Annie	-11.4477
Conditions	-11.4481
16	-11.4492
instance	-11.4492
▁&'	-11.4494
▁V	-11.45
diet	-11.45
when	-11.45
Jill	-11.45
▁cop	-11.4502
fruit	-11.451
▁directed	-11.4511
▁shouting	-11.4517
▁toothpaste	-11.4519
▁mass	-11.452
▁jokes	-11.4522
work	-11.4526
▁bark	-11.4531
▁triangle	-11.4539
▁beep	-11.4541
▁glove	-11.4544
▁Exit	-11.4548
▁checkups	-11.4551
▁cocoa	-11.4555
▁spirit	-11.4555
▁fearful	-11.4555
▁vine	-11.4556
▁shampoos	-11.4557
▁respiratory	-11.456
▁40)	-11.4561
▁barking	-11.4561
▁##	-11.4562
▁Also	-11.4563
▁cards	-11.4569
created	-11.457
▁cows	-11.4581
▁paws	-11.4588
▁colours	-11.4589
▁falling	-11.4593
ate	-11.4601
▁penny	-11.4603
▁barrel	-11.4603
Str	-11.4606
▁direction	-11.4606
Space	-11.4609
▁meters	-11.4618
sneezing	-11.4622
typeof	-11.4624
▁accept	-11.463
▁pushing	-11.463
▁sailor	-11.4637
▁spell	-11.4638
lowercase	-11.4639
▁heal	-11.464
cm	-11.464
▁unlock	-11.4648
▁determination	-11.4651
▁miserable	-11.4651
▁rubber	-11.4651
▁mama	-11.4651
▁stirred	-11.4651
▁fail	-11.4653
▁paths	-11.4654
AT	-11.4657
▁INTERVAL	-11.4661
49	-11.4662
▁encrypt	-11.4665
▁smells	-11.4683
▁bracelet	-11.4684
▁pebble	-11.4684
windSpeed	-11.4693
Output	-11.4693
loan	-11.4693
▁aeroplane	-11.4699
▁Alternatively	-11.4699
▁scooter	-11.4701
comments	-11.4701
Bye	-11.4704
▁TODO	-11.4706
bus	-11.4716
team	-11.4717
▁opinions	-11.4721
▁<<<	-11.4723
▁protecting	-11.4723
▁gums	-11.4725
object	-11.4726
▁Advanced	-11.4726
▁Assign	-11.4737
▁80)	-11.4741
CSV	-11.4741
▁Parse	-11.4743
Contact	-11.4747
▁DE	-11.4753
▁boots	-11.4757
ON	-11.4771
oe	-11.4775
Workout	-11.4776
▁members	-11.4784
fields	-11.4788
Filing	-11.4791
▁stir	-11.4797
▁developing	-11.48
▁battery	-11.4802
▁companies	-11.4803
stain	-11.4804
▁Baby	-11.4805
▁Polly	-11.4807
nodes	-11.4819
Face	-11.4821
▁chemicals	-11.4821
65	-11.4824
64(	-11.4824
▁cushion	-11.4828
long	-11.4829
▁raises	-11.4832
▁destinations	-11.4835
Cotton	-11.4839
▁0.25	-11.4842
▁lions	-11.4844
▁ignore	-11.4847
▁fireplace	-11.4849
Declare	-11.4849
▁bounced	-11.4852
▁filename	-11.4852
▁pup	-11.4854
▁tricks	-11.4854
▁assessment	-11.4856
▁thanks	-11.4858
>',	-11.4859
▁kg	-11.4862
▁med	-11.4863
▁header	-11.4865
la	-11.4866
▁leading	-11.4868
▁onion	-11.4869
▁+%	-11.4875
▁giggle	-11.4876
Answer	-11.4878
▁ticker	-11.4878
▁diary	-11.488
▁See	-11.4886
Bad	-11.489
▁squeeze	-11.489
▁porch	-11.4895
▁microphone	-11.4895
▁tray	-11.4897
▁8)	-11.4898
Congestion	-11.4899
▁cube	-11.49
▁stickers	-11.4901
▁supported	-11.4903
▁George	-11.4909
▁modest	-11.4917
▁Minimum	-11.4923
](	-11.4933
quality	-11.4934
▁prescription	-11.4934
▁Male	-11.4934
▁causes	-11.4938
USER	-11.4942
▁spring	-11.4943
▁yield	-11.4944
▁peace	-11.4944
▁climbing	-11.4946
-------------+	-11.4946
▁marched	-11.4948
3,	-11.4949
Plan	-11.495
▁violation	-11.495
▁supplies	-11.495
▁sensitivity	-11.4971
However	-11.4975
▁freezer	-11.498
▁pit	-11.4986
ee	-11.4987
longitude	-11.4989
HygieneLevel	-11.4992
▁hippo	-11.4994
▁involving	-11.4994
▁apologized	-11.4996
:.2	-11.4998
kg	-11.4998
▁twitter	-11.5
exit	-11.5001
back	-11.5014
>)	-11.5015
▁prev	-11.502
▁fabrics	-11.5026
▁behaviors	-11.5031
company	-11.5038
transparent	-11.5039
default	-11.5039
▁competitive	-11.5044
▁memories	-11.5044
▁jellyfish	-11.5044
MM	-11.5044
▁cardboard	-11.5044
▁flies	-11.5044
▁dug	-11.5045
▁celery	-11.5045
▁rubbing	-11.5047
▁resource	-11.505
▁toes	-11.5051
End	-11.5051
▁throat	-11.5052
`(`	-11.5059
▁fails	-11.506
hotel	-11.5075
into	-11.5078
brush	-11.5078
▁soldier	-11.5082
WITH	-11.5087
filter	-11.5087
▁api	-11.5087
▁swinging	-11.5094
▁gym	-11.5094
Responsibilities	-11.5094
▁parade	-11.5094
▁dealing	-11.51
▁continues	-11.51
▁indicators	-11.5105
▁gifted	-11.5107
Budget	-11.5108
▁drawings	-11.5123
▁poem	-11.5132
Does	-11.5137
class	-11.514
Daisy	-11.514
▁jeep	-11.5145
▁shopkeeper	-11.5145
ToDouble	-11.5146
args	-11.5149
▁conclude	-11.515
▁germ	-11.515
▁Bear	-11.5152
▁Poor	-11.5157
23	-11.5157
▁90)	-11.5161
▁burn	-11.5162
▁Andy	-11.5169
▁incomplete	-11.5176
▁dessert	-11.5182
second	-11.5185
Shipping	-11.5186
"};	-11.5188
▁maps	-11.5189
RISK	-11.5191
restaurant	-11.5191
Care	-11.5192
SUB	-11.5194
▁motor	-11.5196
InnoDB	-11.5196
▁turkey	-11.5196
▁complications	-11.5196
▁zipper	-11.5196
▁mock	-11.5198
Start	-11.5204
▁randomly	-11.5204
▁sqlite	-11.5216
rinse	-11.5221
Hours	-11.5222
▁0.2	-11.5226
Before	-11.5232
▁120	-11.5235
free	-11.5236
▁RESPONSIBILITY	-11.5236
▁trends	-11.5236
▁People	-11.524
math	-11.524
▁cups	-11.5241
Manager	-11.5242
▁tear	-11.5243
95	-11.5243
abs	-11.5243
▁bicycle	-11.5247
▁(((	-11.5247
▁riding	-11.5249
▁Increment	-11.5249
▁melon	-11.525
▁household	-11.5251
IF	-11.5252
▁nearest	-11.5255
▁deadline	-11.5255
70	-11.5262
▁Pressure	-11.5265
▁24.9	-11.5272
▁Any	-11.5278
▁trade	-11.5286
▁bull	-11.5289
Payment	-11.5293
▁crocodile	-11.5298
▁ENGINE	-11.5298
▁comparison	-11.53
▁mm	-11.5309
▁infected	-11.5309
▁17	-11.531
▁cooler	-11.5311
▁connected	-11.5315
▁exits	-11.5324
Recommended	-11.5333
▁sunflower	-11.5338
▁tunnel	-11.5338
▁garment	-11.5346
Dict	-11.5346
▁chalk	-11.535
▁completing	-11.535
▁leopard	-11.535
▁repeatedly	-11.535
▁earth	-11.5354
▁IOException	-11.5358
▁Ted	-11.5359
▁Filter	-11.5359
▁(`"	-11.5361
ter	-11.5362
▁survey	-11.5363
▁utensil	-11.5365
▁shakes	-11.5368
▁dose	-11.5372
▁Which	-11.5373
▁van	-11.5374
▁sports	-11.5381
ratings	-11.5383
▁poke	-11.5397
▁Feel	-11.5399
(_)	-11.5401
▁baseball	-11.5401
▁alarm	-11.5401
▁memory	-11.5403
▁ceiling	-11.5403
▁Brownie	-11.5403
▁Sandy	-11.541
you	-11.5413
▁arr	-11.5414
▁barks	-11.5418
▁moms	-11.5427
▁devices	-11.5432
available	-11.5433
shares	-11.5439
▁spots	-11.545
▁resist	-11.545
▁terminal	-11.5453
▁vest	-11.5455
keys	-11.5455
▁dishwasher	-11.5455
<=	-11.5456
▁steam	-11.5458
▁raining	-11.5458
▁Nemo	-11.5459
▁perfectly	-11.5462
▁creatures	-11.5462
▁St	-11.5471
▁outputMessage	-11.5471
uri	-11.5472
Dental	-11.5472
=='	-11.5478
▁wag	-11.5481
▁pin	-11.5481
columns	-11.5482
▁sugary	-11.5482
▁Comment	-11.5482
posts	-11.5483
▁reduced	-11.5488
▁occupancy	-11.5489
surface	-11.5491
Grandma	-11.5494
▁shadow	-11.5495
});	-11.5502
nailcare	-11.5504
▁chubby	-11.5506
▁accurate	-11.5506
▁women	-11.5511
cloth	-11.5512
▁previously	-11.5514
▁maintenance	-11.5515
um	-11.5522
▁Index	-11.5523
90	-11.5523
▁"[	-11.5526
defined	-11.5528
Wait	-11.5529
▁coughed	-11.5529
Final	-11.5537
▁lie	-11.5544
▁stamp	-11.5545
▁magnet	-11.5548
▁ex	-11.555
▁unpack	-11.5551
▁Trim	-11.5555
Waxed	-11.5557
}.`	-11.5559
▁contacts	-11.5563
▁peach	-11.5566
sorted	-11.5567
▁delete	-11.5567
LowFlossing	-11.5575
▁taxi	-11.5575
ra	-11.5578
Engagement	-11.5584
▁capacity	-11.5585
drying	-11.5588
▁Boolean	-11.5589
Client	-11.5591
▁consents	-11.5597
▁combine	-11.56
▁consist	-11.5605
▁Distance	-11.5605
▁{},	-11.5606
▁Red	-11.5609
▁incorporates	-11.5609
=$(($	-11.5611
▁Bun	-11.5611
▁skipping	-11.5611
▁pole	-11.5611
▁rated	-11.5612
▁sweetheart	-11.5613
▁lively	-11.5614
▁season	-11.5615
off	-11.5625
▁operators	-11.5628
▁covers	-11.5631
▁Appointment	-11.5641
▁yell	-11.5645
▁moves	-11.5652
Dirty	-11.5652
Brushing	-11.5659
Unknown	-11.5662
moisturizer	-11.5663
▁optimal	-11.5665
▁flute	-11.5665
▁jug	-11.5665
▁disgusting	-11.5665
▁runny	-11.5666
▁winter	-11.5667
▁electronic	-11.5674
▁weigh	-11.5679
▁mint	-11.568
▁toenails	-11.5684
▁2023	-11.5687
▁col	-11.5694
\"	-11.5701
Year	-11.5705
reviews	-11.5707
medical	-11.5708
▁dolphin	-11.5708
▁looping	-11.5712
First	-11.5714
▁rank	-11.5714
COUNT	-11.5716
"]["	-11.5717
▁petals	-11.5718
▁caloric	-11.572
▁pushes	-11.5721
▁WHO	-11.5722
▁State	-11.5724
▁Author	-11.5724
4)	-11.5726
▁windSpeed	-11.5727
▁soak	-11.5732
▁lat	-11.5735
▁eyelid	-11.5739
▁improved	-11.5747
▁Option	-11.5748
▁$1	-11.575
▁trick	-11.5756
=1)	-11.5756
▁learnt	-11.5758
▁conditioning	-11.5763
moisture	-11.5769
hygeine	-11.577
▁beyond	-11.5772
▁cactus	-11.5772
▁kingdom	-11.5772
▁skirt	-11.5772
▁wife	-11.5772
▁eraser	-11.5773
▁strawberry	-11.5773
:%	-11.5778
▁tr	-11.5785
▁worse	-11.5805
▁sorting	-11.5807
▁depend	-11.5808
comment	-11.5813
▁nation	-11.5819
▁compute	-11.5821
▁tube	-11.5823
HAND	-11.5823
▁reindeer	-11.5826
workout	-11.5826
▁mustache	-11.5826
▁Flow	-11.5826
PersonalItem	-11.5827
▁declined	-11.5827
▁cable	-11.583
prices	-11.5831
▁gain	-11.5835
▁ALL	-11.5837
▁ingredient	-11.5837
Tasks	-11.5837
▁examinations	-11.5839
show	-11.5844
\_	-11.5858
▁sticky	-11.5861
ol	-11.5861
Choose	-11.5863
enrollment	-11.5871
Object	-11.5871
▁knot	-11.5871
▁costume	-11.5871
▁faucet	-11.5872
▁delivery	-11.5874
▁tire	-11.5876
▁luck	-11.5876
▁sc	-11.5877
final	-11.5878
connect	-11.5879
collect	-11.5879
runny	-11.588
CONCAT	-11.588
▁cauliflower	-11.588
▁slippery	-11.588
▁yacht	-11.588
▁notebook	-11.5881
▁portfolio	-11.5881
"].	-11.5882
PrivacyLevel	-11.5882
▁skill	-11.5882
▁plus	-11.5883
Cleaned	-11.5886
light	-11.5887
▁license	-11.5888
▁chapter	-11.5893
▁weights	-11.5901
▁bc	-11.5922
▁headed	-11.5924
▁sneak	-11.5924
▁museum	-11.593
▁hockey	-11.5935
▁breeze	-11.5936
▁dispose	-11.5937
▁examine	-11.5939
auth	-11.5939
▁lawyer	-11.5939
▁samples	-11.594
shower	-11.5941
▁hoping	-11.595
pain	-11.5961
▁BP	-11.5965
▁horses	-11.5966
term	-11.5967
Habits	-11.5969
Label	-11.5969
▁followers	-11.5976
▁rod	-11.5977
▁exceed	-11.5979
trips	-11.598
▁hunter	-11.5981
▁mug	-11.5981
▁population	-11.5982
percent	-11.5987
allergy	-11.599
Mummy	-11.599
insert	-11.599
▁marry	-11.599
▁travelling	-11.5991
▁Has	-11.5992
▁encouraged	-11.5997
▁classroom	-11.5998
#{	-11.6001
▁everyday	-11.6001
isNaN	-11.6004
]))	-11.6004
▁hanging	-11.6006
isValid	-11.6007
▁rolling	-11.6008
ip	-11.6009
Starting	-11.6015
_2	-11.6016
▁unit	-11.6022
rec	-11.6029
▁Pro	-11.6034
▁reflect	-11.6038
▁secure	-11.6045
▁lightning	-11.6045
▁representation	-11.6047
Per	-11.605
▁apoc	-11.6051
▁zoomed	-11.6051
85	-11.6051
▁eligibility	-11.6053
▁consumed	-11.6056
▁km	-11.6058
▁sizes	-11.6063
▁incorrect	-11.608
▁knock	-11.6083
pending	-11.6089
▁breaking	-11.609
▁spark	-11.609
datetime	-11.6091
▁peek	-11.6091
Dentist	-11.6095
▁imagine	-11.6096
balance	-11.6096
Information	-11.6101
▁strategies	-11.6102
▁30;	-11.6103
1),	-11.6106
▁glowing	-11.6107
sleep	-11.6109
▁stared	-11.6116
minutes	-11.6121
▁roles	-11.6121
ok	-11.6122
▁keywords	-11.6124
▁awk	-11.6125
▁Restaurant	-11.6139
▁protocols	-11.6144
Safe	-11.6146
counts	-11.6149
▁utilize	-11.6152
▁admire	-11.6152
▁clapping	-11.6156
▁missile	-11.6157
advanced	-11.6157
INSERT	-11.6158
▁Message	-11.6159
▁razor	-11.6163
▁treasures	-11.6164
topics	-11.6168
Split	-11.6168
▁offers	-11.6169
▁server	-11.6175
▁candles	-11.6175
▁treated	-11.6178
▁manager	-11.618
reaches	-11.6185
▁ink	-11.6191
ethical	-11.6192
Sneeze	-11.6192
▁comet	-11.6205
HairCare	-11.6205
▁insect	-11.6206
▁challenge	-11.6206
exp	-11.6207
Exit	-11.6208
▁swab	-11.6212
▁drain	-11.6213
▁popped	-11.6213
▁sniffed	-11.6213
begin	-11.6214
▁updateExtreme	-11.6216
▁ants	-11.6217
▁roared	-11.6218
▁lather	-11.6219
▁enrolled	-11.622
▁melt	-11.6225
▁flush	-11.623
Availability	-11.6239
ling	-11.6242
▁monthlyPayment	-11.6243
▁tested	-11.6244
▁"$(	-11.6245
[:,	-11.6246
▁));	-11.6254
00	-11.6258
▁crash	-11.626
32,	-11.6261
▁screw	-11.6262
▁plans	-11.6263
▁Dr	-11.6264
▁judge	-11.6264
▁HAVING	-11.6269
▁shelter	-11.6269
▁purse	-11.6269
▁frowned	-11.627
▁"$1"	-11.6271
▁slept	-11.6272
Hands	-11.6273
▁Papa	-11.6273
▁subway	-11.6276
▁unhealthy	-11.6276
▁strategy	-11.6277
Bool	-11.6279
patientData	-11.6282
▁Degree	-11.6285
▁1.0	-11.6292
▁Up	-11.6297
▁structures	-11.6304
Lowest	-11.6304
forEach	-11.6306
><	-11.6311
▁staying	-11.6314
▁author	-11.6315
Review	-11.6321
CONDITION	-11.6324
▁sock	-11.6325
▁tutor	-11.6326
Preference	-11.6326
▁customized	-11.6327
BIAS	-11.6328
▁glow	-11.6328
fetch	-11.6328
%20	-11.633
▁commas	-11.6331
▁stress	-11.6331
Never	-11.6333
▁larger	-11.6339
17	-11.6342
▁opt	-11.635
issues	-11.6353
▁payments	-11.6353
rs	-11.6362
▁mention	-11.6371
]);	-11.6375
▁23	-11.6375
▁rag	-11.6376
limit	-11.6376
▁flame	-11.6377
▁volcano	-11.6382
▁kitty	-11.6383
TREATS	-11.6383
▁Female	-11.6384
stmt	-11.6385
flosses	-11.6388
▁hygienic	-11.6389
▁transmission	-11.639
▁probabilities	-11.6392
▁approval	-11.6392
▁fork	-11.6396
▁np	-11.6397
HealthCheck	-11.6404
Area	-11.6413
▁May	-11.642
array	-11.6438
▁30,	-11.6438
▁deal	-11.6439
▁addition	-11.6439
▁resting	-11.644
▁rise	-11.6442
▁disappear	-11.6442
▁promote	-11.6444
▁produce	-11.6445
▁sticker	-11.6445
▁Dictionary	-11.645
Habit	-11.6451
▁softly	-11.6456
40	-11.6456
healthy	-11.6466
13	-11.6468
24	-11.6469
!";	-11.6469
▁75)	-11.6469
▁breathing	-11.6471
ment	-11.6474
▁chickens	-11.6476
▁tx	-11.6482
▁bikes	-11.6486
▁mouths	-11.6491
▁8.	-11.6493
contact	-11.6496
▁gem	-11.6497
▁swung	-11.6498
▁hook	-11.6498
HighHygiene	-11.6499
Point	-11.6502
diff	-11.6502
▁Buddy	-11.6503
▁blankets	-11.6503
▁Danny	-11.6509
pair	-11.6509
alcohol	-11.6509
safetyLevel	-11.651
Mode	-11.6513
▁maintained	-11.6514
▁splashing	-11.6518
red	-11.6519
predefined	-11.6529
▁++	-11.6531
inputData	-11.6531
options	-11.6533
Min	-11.6533
▁assist	-11.6534
▁collecting	-11.6534
her	-11.6535
AGE	-11.6541
▁nosebleeds	-11.6543
ine	-11.6545
▁correspond	-11.6546
fk	-11.6547
▁sub	-11.655
▁comma	-11.6552
▁environmental	-11.6553
face	-11.6554
▁causing	-11.6557
▁potato	-11.6558
▁satisfied	-11.6559
html	-11.6559
▁refrigerator	-11.6562
▁Steve	-11.6566
▁software	-11.6569
▁GET	-11.6575
▁K	-11.6577
▁Gently	-11.658
▁W	-11.658
▁ha	-11.6583
▁twist	-11.6597
▁HAND	-11.6605
▁decides	-11.6605
nDo	-11.6612
▁BIAS	-11.6613
▁thorough	-11.6614
▁pulls	-11.6615
▁urine	-11.6616
▁Helper	-11.6618
▁freezing	-11.6622
LowFoodHygiene	-11.6622
99	-11.6622
▁cleanings	-11.6624
▁constructs	-11.6627
Nose	-11.6632
%"	-11.6634
tip	-11.6635
▁proficiency	-11.6637
▁pirates	-11.6649
▁seed	-11.6649
▁Group	-11.6653
▁ill	-11.6656
▁Brush	-11.666
▁tuples	-11.6665
▁research	-11.6666
▁doc	-11.6668
▁invite	-11.6669
▁64	-11.667
▁O	-11.6672
.');	-11.6675
▁readability	-11.6676
Due	-11.6676
▁authentication	-11.6677
During	-11.6677
Height	-11.6678
ap	-11.6678
▁indicator	-11.6691
▁totalPoints	-11.6693
▁alive	-11.6694
▁squirrels	-11.6694
Num	-11.6697
▁affect	-11.67
▁welcomed	-11.6703
▁patientID	-11.6707
▁tax	-11.6713
▁AM	-11.6716
Wipe	-11.6718
bath	-11.6725
week	-11.6727
that	-11.6729
▁marble	-11.6729
89	-11.6729
TEMPERATURE	-11.6733
▁harbor	-11.6733
▁mule	-11.6733
▁wardrobe	-11.6734
▁global	-11.6734
▁Current	-11.6735
}})	-11.6735
▁throwing	-11.6736
Everyone	-11.6738
▁celebrated	-11.674
▁0);	-11.6742
▁pine	-11.6745
▁apart	-11.6746
Ha	-11.6755
▁dive	-11.6758
▁electronics	-11.6759
▁inspections	-11.6762
ex	-11.6769
LowFinance	-11.6774
ray	-11.6777
▁Mode	-11.6779
▁systems	-11.6786
▁blueberries	-11.6792
▁chamber	-11.6792
▁furniture	-11.6793
▁.5	-11.6794
▁trustworthiness	-11.68
▁coats	-11.6803
▁eyelids	-11.6803
▁recommends	-11.6803
▁prepare	-11.6805
Needed	-11.6805
▁z	-11.6808
"})-[	-11.681
▁opaque	-11.6811
▁NO	-11.6812
▁feelings	-11.6812
lines	-11.6816
Hour	-11.6819
LowPersonal	-11.682
▁Send	-11.6828
9)	-11.6828
▁latitude	-11.683
Mark	-11.6843
▁sore	-11.6844
heartRate	-11.6845
▁integers	-11.6845
▁acc	-11.6846
▁flea	-11.6848
▁penguin	-11.6849
Success	-11.6852
▁suppose	-11.6852
▁forgotten	-11.6853
▁musician	-11.6853
RATE	-11.6853
▁cord	-11.6853
▁papers	-11.6857
Brand	-11.6858
▁fluoride	-11.6862
▁Another	-11.6864
']['	-11.6864
▁sections	-11.6866
▁permissions	-11.6873
▁rush	-11.6877
▁elbows	-11.6885
▁nor	-11.6888
▁bears	-11.6892
co	-11.6896
':'	-11.6903
▁interactions	-11.6911
▁temporary	-11.6913
▁cabin	-11.6913
▁preparing	-11.6914
▁stadium	-11.6915
disease	-11.6915
▁ingrown	-11.6916
Size	-11.6916
distinct	-11.6918
▁ignored	-11.6919
▁painter	-11.6919
▁deeper	-11.6921
▁enrollments	-11.6921
HighFitness	-11.6925
+=	-11.6927
de	-11.693
Extremely	-11.6931
▁factory	-11.6932
+1)	-11.6936
("$	-11.6939
bad	-11.6941
▁incoming	-11.6951
▁upper	-11.6967
sanitize	-11.6969
Travel	-11.697
▁football	-11.6973
▁regimen	-11.6975
▁consideration	-11.6976
▁safetyRating	-11.6976
LowSecurity	-11.6976
▁cane	-11.6977
▁0.4	-11.6977
▁Private	-11.6979
shared	-11.698
▁owned	-11.6997
Standard	-11.7
▁Did	-11.7002
▁breathe	-11.7006
et	-11.7006
top	-11.7007
▁opening	-11.7007
man	-11.7008
▁medal	-11.7016
(50)	-11.702
▁discover	-11.7021
▁becomes	-11.7022
did	-11.7024
▁bloom	-11.7025
▁lemonade	-11.7034
▁golden	-11.7035
be	-11.7036
uses	-11.7036
diagnosis	-11.7039
▁swamp	-11.7049
▁Seek	-11.7055
"}),(	-11.7089
▁ago	-11.7091
▁succeed	-11.7093
▁microscope	-11.7096
▁greedy	-11.7096
Request	-11.7099
Fare	-11.7099
▁stable	-11.71
▁quiz	-11.7103
(0);	-11.7105
shoe	-11.7106
▁sunset	-11.7109
)\	-11.711
▁Percentage	-11.7112
▁de	-11.7112
are	-11.7112
67	-11.7113
"}]->(	-11.7116
48	-11.7118
▁flags	-11.7122
▁brands	-11.7128
▁handwashes	-11.7129
ExtremeWeather	-11.7131
▁Change	-11.7136
▁fishing	-11.714
Trip	-11.7144
▁pat	-11.7152
Disease	-11.7155
▁monitor	-11.7156
HighFlossing	-11.7157
▁junk	-11.7157
OutsideTheHome	-11.7157
▁buckle	-11.7157
▁soccer	-11.7157
URL	-11.7162
▁identified	-11.7163
CONTAINS	-11.7164
▁consisting	-11.7164
>()	-11.7165
sanitizer	-11.7166
ating	-11.7167
goals	-11.7168
▁dosage	-11.7169
char	-11.7183
grades	-11.7184
air	-11.7188
79	-11.7189
▁commented	-11.719
▁26	-11.7192
▁numDays	-11.7192
▁lists	-11.7195
▁selecting	-11.7201
Education	-11.7205
HealthCheckUps	-11.721
▁hotels	-11.7222
▁temple	-11.7223
▁warmth	-11.7223
▁Whiskers	-11.7224
▁restrictions	-11.7225
Alcohol	-11.7226
zero	-11.7227
problems	-11.7234
▁Maggie	-11.7234
▁$$	-11.724
▁hr	-11.7245
▁EPO	-11.7246
records	-11.7247
▁shoulder	-11.7247
▁startTime	-11.7252
▁redness	-11.7257
NO	-11.727
Source	-11.7272
▁trophy	-11.7282
▁tucked	-11.7282
▁sunglasses	-11.7283
▁jewelry	-11.7283
▁frequencies	-11.7285
▁constructor	-11.7285
▁sec	-11.7286
▁tailor	-11.7287
▁fastest	-11.7288
▁heads	-11.7292
▁discharge	-11.7302
▁arrival	-11.7305
rain	-11.7305
school	-11.7309
Wearing	-11.7314
touch	-11.7321
DateTime	-11.7327
▁art	-11.7328
▁overweight	-11.7329
▁switches	-11.7338
▁teaspoon	-11.7344
▁acorn	-11.7345
rows	-11.7353
properties	-11.7353
▁coordinates	-11.7356
▁moisturize	-11.736
ty	-11.7361
▁evaluated	-11.7362
▁sprayed	-11.7364
toothbrush	-11.7364
LowFootCare	-11.7368
▁glucose	-11.7368
▁Continue	-11.7368
LowEarHygiene	-11.7371
▁dandruff	-11.7381
ful	-11.7382
▁diff	-11.7385
▁confidential	-11.739
cols	-11.7394
Reminder	-11.7395
apply	-11.7404
▁Wait	-11.7405
):"	-11.7407
▁shrugged	-11.7408
▁sir	-11.7408
tr	-11.741
▁tornado	-11.741
▁gust	-11.7412
▁passenger	-11.7413
child	-11.7416
Daddy	-11.7417
▁eaten	-11.7417
▁classification	-11.7419
LowFitness	-11.7423
▁Amount	-11.7423
▁deviation	-11.7423
SneezeEtiquette	-11.7425
▁Alert	-11.7425
bob	-11.7428
py	-11.743
▁aspects	-11.7432
idx	-11.7441
People	-11.7442
HighTravel	-11.7444
▁J	-11.7445
Cholesterol	-11.7446
ri	-11.7455
Ethics	-11.7464
Was	-11.7464
▁violin	-11.7472
Detailed	-11.7472
▁policies	-11.7473
▁airplane	-11.7475
▁divided	-11.7475
▁bleach	-11.7479
▁quietly	-11.7479
more	-11.748
sick	-11.748
Both	-11.748
Appointment	-11.7481
shirt	-11.7482
▁grams	-11.749
▁Henry	-11.7496
▁decongestants	-11.7499
▁0.0;	-11.7505
▁retweets	-11.7519
▁modes	-11.7522
LowWeather	-11.7524
▁cliff	-11.7536
▁remedies	-11.7536
▁waving	-11.7536
▁flapped	-11.7536
▁shovel	-11.7536
▁jogging	-11.7539
▁SWITCH	-11.7542
utensil	-11.7543
▁Snowy	-11.7543
Benny	-11.7545
▁vroom	-11.7551
▁hashtag	-11.7554
▁cracked	-11.7555
▁Pat	-11.7584
▁pages	-11.7584
:$	-11.7584
▁grapes	-11.7585
▁frogs	-11.7592
Book	-11.7595
▁rot	-11.7597
74	-11.7599
▁mosquito	-11.76
▁unhappy	-11.76
deemed	-11.76
▁spear	-11.7601
▁effectiveness	-11.7602
▁blinked	-11.7602
▁bar	-11.7605
lo	-11.7606
Dandruff	-11.7609
silent	-11.7609
▁mist	-11.761
cursor	-11.761
procedure	-11.7611
▁checkExtreme	-11.7612
0.5	-11.7612
safetyRating	-11.7613
▁Poppy	-11.7614
39	-11.7615
__"	-11.763
▁web	-11.763
▁pulling	-11.7632
▁reservations	-11.7633
▁inputData	-11.7642
▁Additional	-11.7646
OR	-11.7649
14	-11.7652
▁God	-11.7652
▁leak	-11.7659
▁sex	-11.7662
▁skeleton	-11.7665
▁blouse	-11.7665
▁buried	-11.7665
▁measuring	-11.7665
▁telephone	-11.7665
▁omitted	-11.7665
▁fog	-11.7666
▁harm	-11.7666
▁logging	-11.7666
experience	-11.7669
▁Buzz	-11.767
Loan	-11.767
▁intervention	-11.7672
▁Freddy	-11.7672
▁crawling	-11.7675
mark	-11.7678
▁James	-11.7681
▁subjects	-11.7683
▁consulting	-11.7683
=2	-11.7685
▁tolerance	-11.7695
▁exp	-11.7697
▁components	-11.7704
(|	-11.771
enter	-11.7712
)])	-11.7713
Car	-11.7714
▁app	-11.7718
▁50;	-11.7727
▁tend	-11.7729
higher	-11.773
▁pinch	-11.773
LowTravel	-11.773
▁mattress	-11.7731
▁hygeine	-11.7732
▁sunlight	-11.7733
▁incorporate	-11.7733
▁stuffed	-11.7735
▁shift	-11.7736
▁poked	-11.7737
▁manufacturer	-11.7737
Un	-11.774
▁footwear	-11.774
principal	-11.7741
Sometimes	-11.7741
ExtremeFlossing	-11.7743
vehicle	-11.7744
▁displayExtreme	-11.7747
Place	-11.7747
▁20)	-11.7752
▁FOR	-11.7754
▁prioritize	-11.7766
▁stocks	-11.7766
Itinerary	-11.7769
▁chairs	-11.7772
▁pr	-11.7775
PerDay	-11.7777
ExtremeTravel	-11.778
calculateExtreme	-11.7784
'):	-11.7791
▁5:	-11.7791
5,	-11.7794
▁concise	-11.7795
▁agreement	-11.7797
▁giraffe	-11.7799
▁ribbon	-11.7799
▁essential	-11.7801
▁cared	-11.7802
▁liquid	-11.7803
▁flat	-11.7805
request	-11.7807
ethnicity	-11.7807
separated	-11.7808
Path	-11.7808
▁contained	-11.7818
ized	-11.7818
▁waxed	-11.7831
▁Stop	-11.7833
Thanks	-11.7836
ExtremeSecurity	-11.7839
missing	-11.7844
ist	-11.7845
▁bean	-11.7853
▁discuss	-11.7853
▁ambulance	-11.7863
▁creek	-11.7863
▁qualifies	-11.7863
▁captain	-11.7863
▁tug	-11.7864
▁axe	-11.7864
▁sandcastle	-11.7865
▁hut	-11.7866
▁creation	-11.7868
▁Initial	-11.7869
▁kilograms	-11.787
though	-11.7874
▁PROCEDURE	-11.7876
Out	-11.7878
▁lend	-11.7879
▁bank	-11.7881
▁limited	-11.7883
▁MONTH	-11.7884
▁reads	-11.7886
ffecting	-11.7891
▁hairType	-11.7895
(1	-11.7898
▁dressed	-11.7905
▁Interest	-11.7907
▁patientData	-11.7909
▁PM	-11.7909
ia	-11.791
▁modules	-11.7921
NailCare	-11.7925
▁bouncing	-11.7929
parseDouble	-11.793
▁DATETIME	-11.793
▁strawberries	-11.793
▁anchor	-11.7931
▁warnings	-11.7932
▁eagerly	-11.7932
▁usually	-11.7934
▁mixer	-11.7934
wax	-11.7935
▁Rosie	-11.7935
▁<>	-11.7935
▁(_,	-11.7937
nBased	-11.794
▁st	-11.794
Vec	-11.7941
Neo	-11.7941
Country	-11.7941
Inside	-11.7942
▁braces	-11.7942
reps	-11.7942
Moisturizer	-11.7945
(50),	-11.7945
▁Daily	-11.7955
▁checkHygiene	-11.7956
▁minor	-11.7958
▁designing	-11.7961
head	-11.7964
done	-11.7965
Clear	-11.7967
Shower	-11.7968
none	-11.7986
LowSocialMedia	-11.7991
▁crib	-11.7997
▁hydrated	-11.7997
▁trigger	-11.7998
▁typeof	-11.7998
traffic	-11.7999
▁mitten	-11.8
▁SQLite	-11.8001
▁claws	-11.8001
▁fecal	-11.8012
▁dear	-11.8021
▁units	-11.8021
▁copy	-11.8025
▁analyzed	-11.8042
▁laundering	-11.805
toilets	-11.8052
▁1))	-11.8057
▁weighted	-11.8057
Itchy	-11.8058
▁algorithms	-11.8058
Keep	-11.806
▁rhinoceros	-11.8063
▁Cleanliness	-11.8064
▁bookshelf	-11.8064
▁piano	-11.8064
▁veil	-11.8064
▁hedge	-11.8065
▁deduct	-11.8065
▁extended	-11.8066
▁television	-11.8067
Issue	-11.8068
▁explicitly	-11.8069
2023	-11.8071
performance	-11.8077
THEN	-11.8077
Work	-11.808
room	-11.8083
tmp	-11.8087
nIt	-11.8088
5)	-11.8089
▁TIME	-11.8089
WASHING	-11.8091
▁purchases	-11.8094
▁Statement	-11.8099
▁Question	-11.8115
HR	-11.8117
LowNailCare	-11.8118
▁Inspection	-11.8119
▁pastry	-11.8132
ice	-11.8132
▁Choose	-11.8133
▁pill	-11.8134
▁presents	-11.8135
▁Review	-11.8135
▁gaze	-11.8135
pass	-11.8135
▁sanitizing	-11.8136
Moisturize	-11.8136
▁married	-11.8137
▁generally	-11.814
▁calculator	-11.8141
tooth	-11.8141
▁increases	-11.8142
▁compliance	-11.8143
▁Katie	-11.8144
Emma	-11.8145
▁solved	-11.8147
Flight	-11.8148
field	-11.8148
▁American	-11.8151
▁teaching	-11.8153
(1,	-11.8162
▁occurs	-11.8165
05	-11.8173
▁grouped	-11.8176
▁Jo	-11.8176
▁surf	-11.8181
▁restore	-11.8196
▁publicly	-11.8197
▁appreciate	-11.8199
▁church	-11.8201
▁imagination	-11.8201
▁beamed	-11.8201
▁whip	-11.8202
▁investigation	-11.8203
Priority	-11.8204
▁Jerry	-11.8205
▁lime	-11.8206
▁historical	-11.8206
▁cartoon	-11.8206
▁vet	-11.8209
prob	-11.8212
section	-11.8213
▁classes	-11.8219
[0],	-11.8222
ForBeginners	-11.8229
▁Diagnosis	-11.8239
LowHandHygiene	-11.825
▁waits	-11.8258
▁spoil	-11.8258
▁lean	-11.8261
▁DataFrames	-11.8264
▁bother	-11.8265
▁meaning	-11.8265
Pow	-11.8265
▁navy	-11.827
▁yucky	-11.827
Yuck	-11.8271
Advice	-11.8271
▁personalized	-11.8272
▁texture	-11.8275
▁neutral	-11.8279
▁exposed	-11.8282
consumption	-11.8284
fabricType	-11.8286
▁sending	-11.8289
Vehicle	-11.829
▁guideline	-11.8291
/${	-11.8299
▁sold	-11.8302
▁unsafe	-11.8306
▁preventative	-11.832
▁pear	-11.8324
Speed	-11.8326
HighHandling	-11.8329
▁sparkles	-11.8331
▁pray	-11.8332
LowHandWashing	-11.8336
▁cherries	-11.8339
▁participating	-11.8339
▁hall	-11.8343
▁ROUND	-11.8345
▁bang	-11.8345
▁shot	-11.8346
▁thumb	-11.8347
load	-11.8348
loss	-11.8348
warn	-11.835
Expected	-11.8353
RESPONSIBILITY	-11.8353
over	-11.8354
Fruit	-11.8355
AL	-11.8358
ities	-11.836
▁amounts	-11.8363
(4)	-11.8363
▁"#	-11.8364
▁50%	-11.837
local	-11.837
Fitness	-11.8373
▁Text	-11.8373
ched	-11.8382
ill	-11.8386
("[	-11.8397
▁numberOf	-11.8398
Cleaner	-11.8399
Email	-11.8399
given	-11.84
ig	-11.8404
▁law	-11.8404
PERFORMED	-11.8409
▁perfume	-11.8409
▁underneath	-11.8409
▁laughter	-11.841
▁chirping	-11.8411
▁hate	-11.8411
USES	-11.8414
▁motorcycle	-11.8415
▁goggles	-11.8415
▁efficiency	-11.8416
Selected	-11.8416
Types	-11.8417
▁rang	-11.8419
Pricing	-11.842
▁cancelled	-11.842
▁IDs	-11.8422
Found	-11.8423
storage	-11.8424
Primary	-11.8424
disinfection	-11.8424
Will	-11.8424
Enrollment	-11.8424
▁roads	-11.8425
Ok	-11.8425
store	-11.8426
▁'1'	-11.8429
▁connecting	-11.8429
medication	-11.8431
▁sailing	-11.8431
img	-11.8432
▁Always	-11.8432
▁senior	-11.8435
Stain	-11.8439
▁summ	-11.8442
Mask	-11.8463
)[1]	-11.8467
▁surprises	-11.8468
▁1),	-11.847
▁heartRate	-11.847
te	-11.8473
Improve	-11.8474
]->	-11.8476
▁generator	-11.8479
▁mystery	-11.8479
▁sequentially	-11.8479
▁skull	-11.848
▁ch	-11.8481
solution	-11.8482
▁sparkle	-11.8484
▁wandered	-11.8485
▁palm	-11.8487
▁major	-11.8493
Because	-11.8494
HighFootCare	-11.8496
▁dollars	-11.8498
▁Afterwards	-11.8498
▁'\	-11.8498
▁debt	-11.85
▁Blood	-11.8505
mouth	-11.8513
▁consumer	-11.8513
▁30%	-11.8516
▁[0,	-11.8519
▁trans	-11.8533
Yy	-11.8534
▁profit	-11.8535
ExtremeEducation	-11.8536
"`),	-11.8538
▁bloodPressure	-11.854
ExtremeFitness	-11.8543
▁argue	-11.8545
▁cherry	-11.855
▁trustScore	-11.8553
▁Bunny	-11.8557
Transformed	-11.8558
▁olive	-11.8558
▁countries	-11.856
▁rail	-11.8561
Soak	-11.8561
▁+----+---------	-11.8563
▁Calculating	-11.8564
isinstance	-11.8564
Reservation	-11.8564
base	-11.8566
sub	-11.8569
▁peak	-11.8574
▁reminding	-11.8574
▁Driver	-11.8574
_1	-11.8581
▁br	-11.8583
[1],	-11.8585
Expenses	-11.8585
%)	-11.8592
raw	-11.8597
=$2	-11.8599
▁strip	-11.86
▁bones	-11.8611
ES	-11.8616
▁observe	-11.8616
▁specifie	-11.8617
▁credits	-11.8618
▁attach	-11.8618
Role	-11.8621
▁amazement	-11.8622
▁scolded	-11.8623
▁improper	-11.8623
ging	-11.8624
▁powder	-11.8625
▁relaxed	-11.8626
}`)	-11.8628
▁Execute	-11.8628
nInvalid	-11.8629
remove	-11.8629
▁magazine	-11.8629
▁gifts	-11.863
▁sausage	-11.863
▁modification	-11.863
▁loaded	-11.8631
trans	-11.8631
Entry	-11.8632
-$	-11.8633
Change	-11.8635
▁Millie	-11.8635
]")	-11.8635
▁10,	-11.8636
Correct	-11.8637
▁crossed	-11.8638
ACCESS	-11.8638
Wind	-11.8638
Disinfection	-11.8638
Last	-11.8639
events	-11.864
▁soiling	-11.8643
handWash	-11.8646
attraction	-11.8647
sqrt	-11.865
nFor	-11.8652
▁planes	-11.8653
▁Space	-11.8661
Calories	-11.8667
res	-11.8667
69	-11.8671
▁cats	-11.8676
▁Procedure	-11.8681
▁dict	-11.8689
Observation	-11.869
▁surrender	-11.8691
PASSWORD	-11.8694
▁requiring	-11.8694
▁Soak	-11.8695
▁yawned	-11.8695
▁inflammation	-11.8696
▁destroyed	-11.8696
▁attached	-11.8697
=("	-11.8698
▁worn	-11.8701
▁avocado	-11.8702
▁mushroom	-11.8702
Mouthwash	-11.8704
▁_)	-11.8704
▁chewing	-11.8704
departure	-11.8706
PER	-11.8708
Subject	-11.871
infection	-11.8711
Performance	-11.8711
▁Maria	-11.8712
▁$${	-11.8714
▁puzzles	-11.8715
▁Title	-11.8717
▁PPE	-11.8717
▁fees	-11.8719
▁lands	-11.8721
▁dentists	-11.8732
2)-[:	-11.8733
▁licks	-11.8735
100	-11.8737
hi	-11.8737
▁Event	-11.8745
▁links	-11.8755
▁represented	-11.876
▁tease	-11.8762
words	-11.8764
▁chimney	-11.8766
▁wizard	-11.8766
▁novel	-11.8766
Make	-11.8767
parts	-11.8769
found	-11.8773
▁someday	-11.8774
▁20%	-11.8776
▁taxes	-11.8776
▁TO	-11.8776
▁investments	-11.878
Exam	-11.8784
opinion	-11.8784
symbol	-11.8784
severe	-11.8784
shape	-11.8785
▁David	-11.8787
expertiseLevel	-11.8787
▁Int	-11.8792
▁HAS	-11.8792
Comment	-11.8794
6)	-11.8798
stop	-11.8801
MIN	-11.8802
dd	-11.8803
.0	-11.8805
▁20;	-11.8807
▁Cover	-11.8807
▁seats	-11.8808
div	-11.8828
▁recognize	-11.8835
▁riskScore	-11.8837
notes	-11.8838
▁TINYINT	-11.8839
▁armchair	-11.8839
▁bathrobe	-11.8839
▁parsing	-11.8839
▁underlying	-11.8839
▁valley	-11.8839
most	-11.884
▁vanished	-11.884
bp	-11.884
▁exercising	-11.8841
▁identifier	-11.8841
issue	-11.8843
▁earned	-11.8848
▁neighbour	-11.8851
▁camp	-11.8853
Transparent	-11.8856
Avg	-11.8857
Unwaxed	-11.8857
Rinsing	-11.8857
▁specifying	-11.8858
▁Moderately	-11.8859
▁pos	-11.8864
▁workplace	-11.8866
▁uniform	-11.8866
wipe	-11.8868
▁prepared	-11.8873
▁proportion	-11.8874
▁opera	-11.8874
Since	-11.8884
way	-11.8892
▁prior	-11.8912
▁tuna	-11.8913
page	-11.8914
▁NODE	-11.8915
▁(2,	-11.8916
▁accident	-11.8916
▁settled	-11.8917
▁0.95	-11.8921
▁readable	-11.8923
ad	-11.8924
▁2),	-11.8927
▁findings	-11.8928
▁rabbits	-11.893
Laptop	-11.8931
▁calculateLow	-11.8931
URI	-11.8932
nil	-11.8937
some	-11.8938
▁ringing	-11.8938
getline	-11.8945
▁Fabric	-11.8948
▁dancer	-11.8951
(0)	-11.8953
▁predictions	-11.896
▁worms	-11.8965
ratio	-11.8971
lon	-11.8975
▁clarify	-11.8981
students	-11.8981
▁radish	-11.8986
▁hurricane	-11.8987
▁brain	-11.8987
▁parties	-11.8988
▁blank	-11.8988
▁leather	-11.8991
▁knob	-11.8998
me	-11.8999
▁deny	-11.8999
▁myself	-11.8999
▁prune	-11.9
▁experiment	-11.9003
Illness	-11.9003
Consult	-11.9005
Policy	-11.9005
valid	-11.9009
'){	-11.9011
▁prompted	-11.9012
▁Exiting	-11.9015
selection	-11.9017
nand	-11.9017
Medication	-11.9017
image	-11.9021
▁safetyLevel	-11.9023
▁ages	-11.9025
[4]	-11.9029
34	-11.9029
▁Regularly	-11.9035
▁25;	-11.9044
ForProfessionals	-11.9049
▁quarrel	-11.9052
▁Francisco	-11.9061
▁alright	-11.9061
▁pride	-11.9062
active	-11.9063
▁oxygen	-11.9067
"+	-11.9068
▁effort	-11.9076
▁HashMap	-11.9077
Two	-11.9081
▁cleanser	-11.9082
Probability	-11.9086
▁unwaxed	-11.9087
▁interaction	-11.9088
po	-11.9088
▁puddles	-11.9089
WashingFrequency	-11.9091
Problem	-11.9092
▁bravely	-11.9095
Assessment	-11.9101
▁lon	-11.9102
▁chips	-11.9102
></	-11.9104
▁co	-11.9105
▁expect	-11.9107
▁treating	-11.9109
2;	-11.911
(256),	-11.9115
▁rubs	-11.9123
ure	-11.9126
---------------	-11.9127
spray	-11.913
▁fought	-11.9136
▁birdcage	-11.9137
▁concatenate	-11.9137
▁castles	-11.914
wear	-11.914
▁qualified	-11.9141
▁squeezed	-11.9144
▁refer	-11.9145
▁winner	-11.9146
▁70)	-11.9146
▁newspaper	-11.9148
style	-11.9151
▁mins	-11.9153
Nodes	-11.9155
Air	-11.9157
Twitter	-11.9157
both	-11.9157
moderately	-11.9162
▁pow	-11.9162
▁ideas	-11.9163
Handwash	-11.9167
review	-11.917
▁con	-11.9179
▁100,	-11.918
itemName	-11.9181
gov	-11.9182
▁Un	-11.9183
000	-11.9184
▁zone	-11.9186
author	-11.9201
overall	-11.9204
▁Students	-11.9208
▁snapped	-11.9212
▁spade	-11.9212
▁eight	-11.9213
▁FUNCTION	-11.9213
▁bookcase	-11.9219
▁Johnson	-11.922
▁Intermediate	-11.9222
▁holiday	-11.9224
[!,:	-11.9229
Cuticle	-11.9231
coming	-11.9237
▁multiplier	-11.9241
▁incident	-11.9246
▁dob	-11.9246
Additional	-11.9246
Users	-11.9252
▁writes	-11.9255
▁0.5)	-11.9267
InterestRate	-11.9268
▁loose	-11.9268
▁5%	-11.9269
randint	-11.9272
---	-11.9277
Tweet	-11.9277
HandSanitizer	-11.9284
▁bury	-11.9285
▁descriptive	-11.9289
▁grocery	-11.929
▁Mass	-11.9292
▁60;	-11.9294
06	-11.9295
GPA	-11.9302
▁industry	-11.9304
▁idx	-11.9304
▁Science	-11.9305
confidential	-11.931
[1]}	-11.9311
card	-11.9316
change	-11.9316
▁oh	-11.9316
▁Oil	-11.9318
LowNoseCare	-11.9318
Hotel	-11.9324
nIf	-11.9333
ans	-11.9336
▁connections	-11.9336
▁12)	-11.9351
▁doors	-11.9363
▁detect	-11.9364
▁fisherman	-11.9366
▁struggling	-11.9366
▁mailman	-11.9366
▁classify	-11.9368
▁scooped	-11.9368
▁bumped	-11.9368
▁Betsy	-11.937
▁formation	-11.9375
▁states	-11.9375
▁merge	-11.9378
▁automobile	-11.9379
▁fact	-11.9381
CREATE	-11.9387
Facebook	-11.9388
sensitive	-11.9388
policy	-11.9388
flush	-11.9388
weekly	-11.9389
Practice	-11.9392
ForExpert	-11.9394
▁Complete	-11.9398
▁sp	-11.9407
Verification	-11.9413
▁!(	-11.9414
▁Cat	-11.9422
▁compares	-11.9428
▁Beginner	-11.943
▁0.15	-11.9431
▁27	-11.9432
▁introduce	-11.9441
▁joining	-11.9442
%%	-11.9443
▁encouraging	-11.9443
▁veterinarian	-11.9443
▁chess	-11.9443
▁sparkling	-11.9443
▁consuming	-11.9443
▁blackboard	-11.9443
▁avoidance	-11.9443
▁Plan	-11.9444
▁preparation	-11.9445
▁melted	-11.9447
http	-11.9448
▁decorations	-11.9452
▁oyster	-11.9457
ForEngineers	-11.9458
▁news	-11.9459
▁rides	-11.9459
▁hanger	-11.9459
FootCare	-11.9462
ne	-11.9462
London	-11.9465
UPDATE	-11.9465
)):	-11.9468
RUN	-11.9469
customerID	-11.9471
Up	-11.9472
▁swelling	-11.9473
Marks	-11.9476
▁Ou	-11.948
64;	-11.9489
▁hopes	-11.949
)*	-11.9495
violations	-11.9499
'}),	-11.95
([]	-11.9501
hose	-11.9502
]]	-11.9507
▁mg	-11.9508
▁trims	-11.9509
ir	-11.9518
▁hits	-11.9518
ify	-11.952
▁pistol	-11.9521
MonthlyPayment	-11.9522
▁begged	-11.9523
▁elevator	-11.9523
▁development	-11.9523
▁revealed	-11.9524
▁fallen	-11.9524
▁unavailable	-11.9526
▁cape	-11.9528
!`);	-11.9532
▁Clara	-11.9534
▁Lilly	-11.9534
▁labeled	-11.9536
▁fluids	-11.9542
Maintain	-11.9544
▁replacement	-11.9544
help	-11.9545
Password	-11.9546
▁async	-11.9546
▁NaN	-11.9547
▁congratulate	-11.9547
fair	-11.9548
App	-11.9549
▁sides	-11.9559
▁alternatives	-11.956
cholesterolLevel	-11.9562
"){	-11.9562
▁profile	-11.9565
▁hated	-11.9566
87	-11.957
▁planet	-11.9577
(*	-11.9579
ward	-11.9581
TimeInSeconds	-11.9582
▁Uncle	-11.9584
exercises	-11.9586
ha	-11.9589
"=>"	-11.959
Given	-11.9592
▁hops	-11.9593
▁destroy	-11.9593
▁kayak	-11.9594
OWNS	-11.96
▁chores	-11.96
▁neighborhood	-11.96
▁Pandas	-11.96
▁Float	-11.9603
▁Floppy	-11.9603
▁succeeded	-11.9604
PART	-11.9604
▁Rachel	-11.9605
Issues	-11.9607
▁BETWEEN	-11.9607
▁180	-11.9607
▁Disinfect	-11.9608
▁burning	-11.9609
▁specialist	-11.961
▁reduction	-11.9611
▁shooting	-11.9611
]"	-11.9612
▁varying	-11.9615
▁38	-11.9617
):");	-11.962
▁hurting	-11.962
[2])	-11.9622
tongue	-11.9623
0.0	-11.9624
Default	-11.9624
Moisturizing	-11.9624
▁container	-11.9627
▁protein	-11.963
▁`&	-11.9632
▁tour	-11.9636
share	-11.9637
feet	-11.9643
stains	-11.9647
▁retrieves	-11.9656
due	-11.9658
▁worker	-11.9658
▁$#	-11.9663
▁floated	-11.9672
▁urge	-11.9679
▁straightforward	-11.9679
▁located	-11.9679
▁unnecessary	-11.9679
▁growled	-11.9681
ById	-11.9681
▁mall	-11.9682
▁residue	-11.9683
▁winning	-11.9684
Mmm	-11.969
▁Per	-11.9697
▁soaking	-11.9698
▁pop	-11.9698
rank	-11.97
▁coverage	-11.9703
profit	-11.9704
▁74	-11.9705
▁simulated	-11.9705
recent	-11.9707
da	-11.9709
▁checkup	-11.9714
tical	-11.9718
▁charge	-11.9719
Return	-11.9719
▁oranges	-11.9719
Reason	-11.9727
Teeth	-11.9729
▁hearts	-11.973
Month	-11.973
*(	-11.9737
iv	-11.9737
CleanlinessLevel	-11.974
7)	-11.9742
▁res	-11.9745
▁Place	-11.9747
▁sale	-11.9754
+1	-11.9756
retrieving	-11.9759
▁grill	-11.9759
▁prescribed	-11.9761
▁scattered	-11.9761
▁irrigation	-11.9765
▁41	-11.9768
▁reply	-11.9769
76	-11.9771
▁Chloe	-11.9771
▁flap	-11.9774
seek	-11.9777
-1]	-11.9781
where	-11.9782
Interest	-11.9783
Most	-11.9783
Together	-11.9785
}]	-11.9786
▁itchy	-11.9787
▁sip	-11.9789
▁super	-11.979
km	-11.9793
'}	-11.9797
[]):	-11.9818
▁heels	-11.9822
▁Expected	-11.9824
rb	-11.9834
▁invitation	-11.984
▁ourselves	-11.984
▁tide	-11.984
▁cabinet	-11.984
▁apron	-11.984
▁digging	-11.984
▁UNION	-11.9845
toString	-11.9846
▁noses	-11.9846
▁remained	-11.9848
once	-11.9849
-1	-11.9851
▁marching	-11.9852
[(	-11.9861
▁protocol	-11.9862
▁peanut	-11.9862
graph	-11.9864
▁Grace	-11.9864
google	-11.9865
fraud	-11.9865
▁sprinkles	-11.9865
HighSecurity	-11.9865
negative	-11.9866
cotton	-11.9866
Asian	-11.9868
98	-11.987
strings	-11.987
▁150	-11.9874
Gloves	-11.9874
Any	-11.9874
▁alongwith	-11.9875
riskLevel	-11.9875
01	-11.9881
▁obj	-11.9881
spending	-11.9882
▁2))	-11.9887
▁()-[	-11.9892
[],	-11.9893
▁Limit	-11.9894
>(	-11.9898
cpp	-11.9901
▁Book	-11.9904
27	-11.9904
▁Points	-11.991
▁olives	-11.9912
▁80%	-11.9914
▁dare	-11.9918
▁CHARSET	-11.9921
▁shrimp	-11.9921
▁earthquake	-11.9922
▁potatoes	-11.9922
▁rake	-11.9922
▁replacing	-11.9923
▁twisted	-11.9925
▁|\	-11.9927
▁beside	-11.9931
▁fewer	-11.9934
▁contribute	-11.9938
▁Everyday	-11.9939
▁college	-11.9939
Reading	-11.9942
search	-11.9945
Jim	-11.9948
||	-11.9951
▁Recommend	-11.9954
rule	-11.9961
▁fireworks	-11.9973
▁0.05	-11.9975
▁packages	-11.9978
((1	-11.9981
▁windspeed	-11.9983
parent	-11.9988
Scrub	-11.999
▁36	-11.9991
▁Alcohol	-11.9994
ipped	-11.9995
▁grinned	-12.0003
▁incidents	-12.0004
▁mold	-12.0005
▁paused	-12.0005
":"	-12.0006
Pre	-12.0007
▁inches	-12.0008
38	-12.0012
▁dresses	-12.0013
96	-12.0014
▁selling	-12.0018
▁longest	-12.0018
(30)	-12.002
▁handWash	-12.002
▁reliabilities	-12.0022
▁cheek	-12.0022
▁grape	-12.0023
opt	-12.0023
▁Source	-12.0024
Lather	-12.0025
47	-12.0027
▁Sunday	-12.0029
client	-12.0031
advice	-12.0031
Replace	-12.0032
InSeconds	-12.0035
▁anti	-12.0037
▁showers	-12.0045
▁Scrub	-12.0058
▁retrieved	-12.0064
▁draws	-12.0066
Over	-12.007
▁minu	-12.0078
▁"2"	-12.0084
necessarily	-12.0086
▁oasis	-12.0086
▁overjoyed	-12.0086
▁surrounded	-12.0086
▁iterating	-12.0086
▁accidents	-12.0087
▁300	-12.0088
▁external	-12.0089
▁cuddled	-12.0089
▁folded	-12.0091
▁antibacterial	-12.0091
▁chewed	-12.0092
1;	-12.0094
rr	-12.0102
▁developers	-12.0104
Surface	-12.0106
spend	-12.0106
2]	-12.011
Scenario	-12.0113
filing	-12.0114
windspeed	-12.0115
DD	-12.0116
Best	-12.0117
filtered	-12.0119
▁tracks	-12.0119
▁appropriately	-12.012
▁site	-12.0124
▁toothbrushing	-12.0126
Top	-12.013
▁28	-12.0139
▁metric	-12.014
▁intervals	-12.0156
▁articles	-12.0156
ability	-12.0156
Limit	-12.0157
▁attempt	-12.0164
][1]	-12.0166
ization	-12.0167
▁grey	-12.0169
▁viruses	-12.0169
▁sense	-12.017
Calculator	-12.0172
▁efficient	-12.0172
▁sponge	-12.0175
▁Joy	-12.0181
▁approached	-12.0181
enum	-12.0181
▁Milly	-12.0182
desc	-12.0183
▁Detected	-12.0186
▁Remember	-12.0194
LowToiletHygiene	-12.0195
TOILET	-12.0198
-01	-12.0198
▁member	-12.0201
▁suggestion	-12.0203
env	-12.0203
▁meetings	-12.0209
▁marketing	-12.021
Foot	-12.0211
Odor	-12.0212
▁Actual	-12.0214
02	-12.0214
▁Leave	-12.0215
Ethic	-12.0218
Transforming	-12.022
(20)	-12.0221
ence	-12.0231
28	-12.0237
Income	-12.0238
hygieneLevel	-12.0242
reliabilityLevel	-12.0244
▁consume	-12.0246
Element	-12.0252
▁lily	-12.0253
SNEE	-12.0253
▁copper	-12.0254
Fee	-12.0255
▁kisses	-12.0256
Social	-12.0257
Uh	-12.0259
▁yesterday	-12.0262
ONE	-12.0263
▁HR	-12.0268
cover	-12.0269
▁parental	-12.0274
▁cobweb	-12.0274
pr	-12.0275
Without	-12.0277
Security	-12.0279
Investment	-12.028
flossed	-12.0281
Store	-12.0281
ticker	-12.0281
property	-12.0283
▁cloudy	-12.0285
▁Year	-12.0286
▁muscle	-12.0287
11	-12.0304
▁Like	-12.031
▁Pass	-12.0311
▁Facebook	-12.0314
▁http	-12.0315
▁machines	-12.0316
1"	-12.0324
]->()	-12.0328
Healthy	-12.0329
▁ability	-12.0332
ian	-12.0332
▁restrooms	-12.0335
▁reveal	-12.0335
▁Medication	-12.0336
▁vendor	-12.0338
SneezingAndCough	-12.0338
▁bunch	-12.0338
▁praised	-12.0339
▁release	-12.034
Group	-12.0343
▁nights	-12.0344
▁Transaction	-12.0345
200	-12.0346
LowClothing	-12.0347
▁timedelta	-12.0351
Vegetable	-12.0358
▁bleed	-12.0362
Senior	-12.0368
ArgumentError	-12.0368
▁closing	-12.038
▁kindly	-12.0382
▁-1)	-12.0388
Tissue	-12.039
▁250	-12.0395
▁Symptom	-12.0396
weatherData	-12.04
▁serves	-12.0404
})"	-12.0411
Address	-12.0416
▁awe	-12.0423
▁eagle	-12.0423
▁infant	-12.0423
VISITED	-12.0423
▁Angeles	-12.0423
▁scored	-12.0424
▁Patients	-12.0425
▁buzzing	-12.0426
▁kill	-12.0426
▁express	-12.0431
▁roots	-12.0432
▁gathering	-12.0437
▁Scalp	-12.0439
▁bpm	-12.0443
our	-12.0444
▁70%	-12.0445
▁projects	-12.0452
Light	-12.0453
interface	-12.0454
rainfall	-12.0454
elbow	-12.0454
positive	-12.0454
HighSocialMedia	-12.0455
catch	-12.0455
Table	-12.0456
Unreliable	-12.0457
ud	-12.0458
▁-->	-12.0461
▁layer	-12.047
▁freeze	-12.0473
▁1.5	-12.0474
BloodPressure	-12.0475
outcome	-12.0476
64{	-12.0496
(['	-12.0498
after	-12.0499
▁whatever	-12.0503
non	-12.0507
▁dictionaries	-12.051
▁jail	-12.051
▁approximately	-12.051
act	-12.0511
Unable	-12.0513
▁glowed	-12.0514
▁laid	-12.0516
▁unwashed	-12.0516
▁obese	-12.0516
▁internal	-12.0517
▁Height	-12.052
reduce	-12.0521
▁Tina	-12.0522
▁Include	-12.0525
=""	-12.0525
,$	-12.053
▁token	-12.0532
Mild	-12.0539
Years	-12.0541
INPUT	-12.0541
responsible	-12.0541
San	-12.0547
▁48	-12.0549
cur	-12.055
▁extracts	-12.056
bathroom	-12.0564
measurement	-12.0565
pos	-12.0571
▁brings	-12.0572
Cold	-12.0575
▁Disease	-12.0587
oil	-12.0588
▁soda	-12.0591
▁Conditional	-12.0595
▁billboard	-12.0597
▁relief	-12.0597
ted	-12.0599
▁tomatoes	-12.0599
▁weren	-12.0602
ce	-12.0603
▁accessible	-12.0603
▁taller	-12.061
cs	-12.0614
2))	-12.0618
▁Someone	-12.062
▁pro	-12.0621
▁Response	-12.0622
▁specialization	-12.0624
▁snap	-12.0626
EXPERT	-12.0628
net	-12.0628
form	-12.0628
birth	-12.0629
lambda	-12.0629
Jenny	-12.0629
equipment	-12.0629
▁images	-12.063
Ready	-12.0631
▁directions	-12.0634
LowHairCare	-12.0636
▁moments	-12.0638
▁passport	-12.0638
▁exiting	-12.0641
▁School	-12.0644
▁Clear	-12.0646
hash	-12.0653
26	-12.0653
ance	-12.0653
reminder	-12.0654
numberOf	-12.0658
obs	-12.0661
97	-12.0667
metrics	-12.0668
04	-12.0671
▁fed	-12.0672
▁.75	-12.0672
▁patiently	-12.0674
▁cartoons	-12.0677
Only	-12.0679
▁pillows	-12.068
▁relieve	-12.0683
▁villagers	-12.0685
▁insisted	-12.0685
RATED	-12.0685
need	-12.0686
▁consecutive	-12.0686
▁reader	-12.0692
▁younger	-12.0692
todo	-12.07
▁lawn	-12.0705
▁offering	-12.0711
cast	-12.0712
▁filtering	-12.0714
2>	-12.0716
Quantity	-12.0717
Little	-12.0717
hw	-12.0718
▁proceeding	-12.072
86	-12.0724
▁Follow	-12.0724
Seconds	-12.0726
credit	-12.0726
expected	-12.0727
="$	-12.0729
08	-12.073
▁pies	-12.0732
totalScore	-12.0733
LowDentalHygiene	-12.0735
invalid	-12.0736
&&	-12.074
yn	-12.0746
()```	-12.0747
hot	-12.0749
()`,	-12.075
ExtremeFootCare	-12.0751
▁De	-12.0752
▁scratch	-12.0759
tx	-12.0765
59	-12.0769
VALUE	-12.0772
▁upstairs	-12.0773
Tooth	-12.0773
▁cumulative	-12.0781
('\	-12.0782
▁insurance	-12.0787
handle	-12.0788
▁Checking	-12.0789
▁domain	-12.079
▁parsed	-12.0791
▁purchased	-12.0795
▁MINIMUM	-12.0796
▁colour	-12.0796
place	-12.0798
IllegalA	-12.0799
▁49	-12.0803
▁writer	-12.0805
▁plates	-12.0806
xlsx	-12.0806
>";	-12.0806
Implement	-12.0807
▁Put	-12.0808
▁slip	-12.081
pre	-12.081
=1;	-12.0815
▁Department	-12.0819
▁bookings	-12.0824
▁war	-12.0827
▁listed	-12.0827
▁pastels	-12.0828
numDays	-12.0829
Quality	-12.0831
▁Calculator	-12.0832
nThis	-12.084
▁fixing	-12.0844
acc	-12.0849
▁recording	-12.0858
▁brevity	-12.0862
▁trapped	-12.0862
Fixed	-12.0862
▁stomach	-12.0865
▁Out	-12.0867
Run	-12.0868
▁extend	-12.087
▁urgent	-12.0875
▁itineraries	-12.0875
▁checkout	-12.0876
▁EOF	-12.0876
▁expenditure	-12.0877
Study	-12.0885
▁install	-12.0886
▁motion	-12.0888
▁ornament	-12.0888
▁37	-12.0891
▁MODERATE	-12.0892
▁'#{	-12.0893
▁whereas	-12.0895
represented	-12.0897
▁confirmed	-12.0899
▁29	-12.09
▁outlier	-12.0901
▁audience	-12.0901
▁polarity	-12.0904
Expertise	-12.0904
▁0.5;	-12.091
mg	-12.0912
Rule	-12.0922
▁Priority	-12.0925
▁punish	-12.0949
try	-12.0952
▁OpenWeatherMap	-12.0952
▁waist	-12.0952
▁boot	-12.0952
▁meowed	-12.0953
▁settle	-12.0954
Really	-12.0955
▁appearance	-12.0956
▁Spike	-12.0957
▁ascending	-12.0957
▁lukewarm	-12.0958
▁Conditions	-12.0958
▁Uber	-12.0958
▁consistent	-12.0958
(20),	-12.096
▁spit	-12.0961
▁escaped	-12.0965
▁bp	-12.0967
▁antihistamines	-12.097
2}	-12.0973
checkups	-12.0976
Disinfect	-12.0977
▁demand	-12.0979
STEP	-12.0986
▁studying	-12.0987
Program	-12.0988
freeze	-12.0988
occupation	-12.0988
msg	-12.0989
Bathing	-12.0991
fee	-12.0991
▁commute	-12.0992
![	-12.0992
▁wine	-12.0993
▁neighbors	-12.0994
DryRun	-12.0997
▁lips	-12.1
workouts	-12.1002
▁Transformation	-12.101
!');	-12.1014
cuticle	-12.1016
▁muscles	-12.102
2),	-12.1025
▁5):	-12.1038
▁batter	-12.1039
▁ruin	-12.104
▁periods	-12.1041
CLEANLINESS	-12.1043
▁vacation	-12.1043
▁weapon	-12.1043
▁hypothe	-12.1043
▁lumber	-12.1043
▁distribution	-12.1043
▁poppy	-12.1043
▁USING	-12.1043
▁berry	-12.1043
▁planned	-12.1044
▁Allow	-12.1044
▁mister	-12.1044
▁mission	-12.1045
determineExtreme	-12.1045
▁gotten	-12.1045
▁rationale	-12.1046
▁removes	-12.1047
▁Final	-12.1047
▁params	-12.1049
▁cancer	-12.105
ExtremeNailCare	-12.105
PI	-12.105
iloc	-12.1052
Bus	-12.1055
▁whisper	-12.1061
▁cuts	-12.1062
Url	-12.1063
▁Reduce	-12.1066
▁Tuesday	-12.1066
ma	-12.1067
▁Dispose	-12.107
▁$50	-12.1072
?\	-12.1077
Relationship	-12.1077
▁Shower	-12.1078
Vector	-12.1079
TRANSPARENCY	-12.1079
▁calculateBMI	-12.1079
Example	-12.108
twice	-12.108
representing	-12.108
Mike	-12.108
▁stroke	-12.1082
▁bedtime	-12.1087
▁Encourage	-12.1091
▁believed	-12.1093
▁dest	-12.1094
▁###	-12.1097
pi	-12.1098
▁140	-12.1099
▁Habits	-12.1107
1_	-12.1113
params	-12.1116
▁U	-12.1121
SI	-12.1123
▁rh	-12.1124
▁asset	-12.1125
▁shiver	-12.1126
ated	-12.1129
▁realize	-12.1131
=3	-12.1132
dose	-12.1133
Diff	-12.1134
31	-12.1134
▁Problem	-12.1137
>=	-12.1138
asList	-12.1139
▁itch	-12.1139
Ouch	-12.1139
...)	-12.114
▁discovery	-12.1141
▁initially	-12.1143
▁sequence	-12.1143
▁adherence	-12.1144
64>()	-12.1144
▁watches	-12.1146
relatively	-12.1149
Station	-12.1151
▁mentions	-12.1153
▁served	-12.1155
▁hygine	-12.1155
▁onwards	-12.1156
▁Notify	-12.1157
▁muffin	-12.1164
HighNoseCare	-12.1169
Create	-12.1169
Child	-12.1171
Ethical	-12.1172
Free	-12.1172
Office	-12.1172
budget	-12.1172
More	-12.1172
needed	-12.1175
ac	-12.1176
HigherEducation	-12.1178
Disinfecting	-12.1178
▁participant	-12.1179
CleaningMethod	-12.118
ier	-12.1182
ref	-12.1191
guidelines	-12.1193
Sanitizer	-12.1202
lid	-12.1204
▁Since	-12.1204
▁pets	-12.1211
▁img	-12.1211
▁twirl	-12.1218
SANITI	-12.122
▁cakes	-12.1222
▁reef	-12.1227
▁vanilla	-12.1227
▁physician	-12.1229
▁podiatrist	-12.1229
▁bites	-12.1233
▁Liz	-12.1238
▁2000	-12.1256
sets	-12.1256
▁center	-12.1256
Section	-12.1259
▁placeholder	-12.1264
numeric	-12.1265
mph	-12.1275
BP	-12.128
ise	-12.1282
...\	-12.1282
rest	-12.1284
▁turning	-12.1289
▁PrivacyLevel	-12.1291
ize	-12.1293
standard	-12.1295
investment	-12.1295
9,	-12.1296
▁Consult	-12.1296
▁Two	-12.1296
}/	-12.1297
Destination	-12.1297
correct	-12.1298
ut	-12.1299
drop	-12.1301
▁todo	-12.1303
▁updateLow	-12.1309
▁cub	-12.1313
▁screams	-12.1316
schedules	-12.1318
▁admiring	-12.1321
▁daisy	-12.1321
▁referencing	-12.1321
▁Santa	-12.1321
▁oak	-12.1321
▁jazz	-12.1322
getElement	-12.1322
eg	-12.1323
▁comfy	-12.1325
▁strict	-12.1325
▁artificial	-12.1326
▁pose	-12.1328
▁soared	-12.1328
▁frozen	-12.1329
▁stripes	-12.1329
("[1]	-12.133
▁torn	-12.134
Boolean	-12.136
JSON	-12.136
▁Home	-12.136
admin	-12.136
▁segment	-12.1362
▁soapy	-12.1366
CoughEtiquette	-12.1371
▁ETHICS	-12.1372
thresholds	-12.1373
precip	-12.1376
▁advantage	-12.1378
flossType	-12.138
ask	-12.1382
▁elephants	-12.1395
▁Wipe	-12.1396
▁attempts	-12.14
▁hadn	-12.1401
▁sew	-12.1408
▁160	-12.1409
HEADERS	-12.141
▁Compute	-12.1412
▁happie	-12.1412
▁thrilled	-12.1415
▁complexity	-12.1416
▁behaviour	-12.1417
▁sunrise	-12.1417
preference	-12.1418
▁investing	-12.1419
▁greeting	-12.1419
▁shorter	-12.1419
Goals	-12.142
▁ripped	-12.1421
▁sings	-12.1421
▁0.85	-12.1422
▁Coco	-12.1422
Washed	-12.1424
▁sufficiently	-12.1425
dataset	-12.1427
eat	-12.1428
▁bump	-12.1433
▁converted	-12.1434
▁alice	-12.1439
▁Sharing	-12.144
dL	-12.1441
▁biting	-12.1442
▁beef	-12.1444
---------------+	-12.1453
op	-12.1455
Room	-12.1456
control	-12.1457
▁salon	-12.1457
▁statuses	-12.1462
1]	-12.1463
ib	-12.1464
▁"1"	-12.1467
sp	-12.1467
article	-12.147
▁(<	-12.1473
hc	-12.1474
▁catching	-12.1476
▁`\	-12.1479
▁improvements	-12.1479
element	-12.1487
8,	-12.1491
37	-12.1492
▁margin	-12.1496
▁corners	-12.1497
ATION	-12.1498
▁3.5	-12.1498
inspection	-12.15
towel	-12.1502
>`	-12.1506
Stains	-12.1506
Understood	-12.151
▁arithmetic	-12.151
▁igloo	-12.151
▁underground	-12.1511
▁enable	-12.1511
▁crunchy	-12.1511
▁flexibility	-12.1512
▁harmful	-12.1514
▁marbles	-12.1517
▁Break	-12.1525
▁LPO	-12.1525
Students	-12.1525
▁beans	-12.1528
▁Something	-12.1529
▁illustrati	-12.1537
ry	-12.1538
▁shippingCost	-12.1539
ous	-12.154
▁accepts	-12.154
▁estimate	-12.1543
Off	-12.1546
▁jewels	-12.1546
Control	-12.1547
▁worsen	-12.1548
▁afterward	-12.1548
TOKEN	-12.155
Nurse	-12.1551
Instagram	-12.1551
dandruff	-12.1551
consumer	-12.1551
▁{}".	-12.1557
6,	-12.1567
CA	-12.1572
]-()	-12.1572
▁Lather	-12.1577
▁Hop	-12.1578
patientName	-12.1579
WeatherData	-12.1583
▁descriptions	-12.1592
TrustScore	-12.1592
▁disturb	-12.1604
▁{}\	-12.1606
▁rhythm	-12.1607
▁steel	-12.1607
▁tweepy	-12.1607
▁reality	-12.1608
▁remote	-12.1609
probably	-12.1609
▁prayed	-12.1611
84	-12.1615
[1].	-12.1618
▁budgeting	-12.1627
▁warn	-12.1628
▁underweight	-12.1634
▁paying	-12.1635
upper	-12.1635
*\	-12.1638
▁waffle	-12.164
increment	-12.1642
link	-12.1644
StepCount	-12.1647
emp	-12.1649
Cannot	-12.1653
exists	-12.1653
▁al	-12.1655
▁Role	-12.1663
▁0))	-12.1664
ero	-12.1669
▁anytime	-12.1679
actions	-12.1681
▁peanuts	-12.1682
Software	-12.1684
position	-12.1698
▁beneath	-12.1704
▁thermometer	-12.1704
▁wiping	-12.1704
▁reenter	-12.1704
▁subquery	-12.1704
▁Duration	-12.1706
▁consequences	-12.1706
▁Verify	-12.1708
▁exact	-12.1708
nThank	-12.1716
▁joins	-12.1716
▁72	-12.1716
▁stealing	-12.1716
▁9.	-12.173
▁strongly	-12.1734
▁5000	-12.1734
▁100%	-12.1735
▁Days	-12.1742
scale	-12.1742
confirm	-12.1743
▁structs	-12.1744
HEALTH	-12.1745
WASH	-12.1746
Minimum	-12.1746
volume	-12.1746
interval	-12.1746
grep	-12.1746
information	-12.1747
▁vitamin	-12.1748
▁oils	-12.176
▁Instagram	-12.176
tion	-12.1766
ea	-12.1775
report	-12.1782
bi	-12.1782
▁bather	-12.1782
▁0..	-12.1783
[0];	-12.1788
▁'';	-12.1789
▁secrets	-12.179
▁workers	-12.1791
▁Employee	-12.1791
▁Miss	-12.1793
▁rm	-12.1796
jpg	-12.1802
innerHTML	-12.1802
▁theater	-12.1802
Styling	-12.1803
(2023,	-12.1803
▁Rabbit	-12.1807
▁LOAD	-12.1811
▁ciphertext	-12.1815
▁regret	-12.1815
]):	-12.1818
▁obs	-12.1818
▁3);	-12.1818
CheckUp	-12.1821
123	-12.1822
Non	-12.1822
▁accounts	-12.1823
▁funds	-12.1827
▁Rest	-12.1831
transformExtreme	-12.1831
lowest	-12.1833
▁15)	-12.1835
cleaner	-12.1835
▁firework	-12.1839
▁stations	-12.1841
7,	-12.1843
salary	-12.1845
Diagnosis	-12.1845
exposure	-12.1845
block	-12.1846
▁herbs	-12.1847
RE	-12.1857
▁9)	-12.1859
▁More	-12.1862
▁burnt	-12.1863
Test	-12.1865
▁Spray	-12.1865
▁Link	-12.1867
▁Avg	-12.1875
▁timer	-12.1881
▁develop	-12.189
▁lookup	-12.189
De	-12.1895
▁superhero	-12.19
▁BeautifulSoup	-12.1901
▁arch	-12.1903
▁pinched	-12.1905
▁bridges	-12.1907
▁travelled	-12.191
▁soiled	-12.191
Accessory	-12.1912
▁metadata	-12.1912
Taking	-12.1914
Tongue	-12.1915
▁Work	-12.1915
▁privileges	-12.1919
")}	-12.192
▁opponent	-12.1921
Loss	-12.1921
cities	-12.1933
▁disinfected	-12.1937
predict	-12.1942
▁34	-12.1944
▁shoeSize	-12.1944
Empty	-12.1944
Overweight	-12.1945
device	-12.1945
Somewhat	-12.1945
Choice	-12.1945
accessory	-12.1946
Shared	-12.1947
nurse	-12.1948
▁salary	-12.1957
_3	-12.1958
▁lastName	-12.1959
);//	-12.1961
▁safer	-12.1966
▁faced	-12.1968
checks	-12.197
ally	-12.1978
▁sales	-12.199
reservation	-12.1994
▁beds	-12.1997
Balance	-12.1998
▁flossType	-12.1998
▁scoop	-12.1998
trustScore	-12.1999
▁satisfies	-12.2001
▁studied	-12.2001
▁wisdom	-12.2001
▁decreasing	-12.2001
▁automatically	-12.2001
▁endTime	-12.2002
▁spaceship	-12.2002
ary	-12.2002
Infection	-12.2004
36	-12.2004
▁Suzy	-12.2004
▁soaked	-12.2006
▁unite	-12.2007
ExtremeClothing	-12.2009
▁Penny	-12.2012
Discounts	-12.2013
▁calcium	-12.2013
▁facility	-12.2015
-3	-12.202
cond	-12.2024
]})	-12.2028
=5	-12.2035
▁hygieneLevel	-12.2038
▁cells	-12.2042
encryption	-12.2045
openweathermap	-12.2045
outsideHome	-12.2046
PRIVACY	-12.2046
seconds	-12.2046
parameter	-12.2047
eyelid	-12.2047
CARE	-12.205
Toilets	-12.205
Rel	-12.2052
▁complain	-12.2058
td	-12.2065
▁baths	-12.2067
ingEtiquette	-12.2068
72	-12.2069
)+	-12.2072
▁workspace	-12.2078
courses	-12.2082
▁firstName	-12.2084
Apple	-12.2093
quit	-12.21
▁blueberry	-12.2102
▁authorities	-12.2102
▁odd	-12.2104
▁overnight	-12.2104
29	-12.2106
▁---	-12.2106
▁desp	-12.2107
▁shortest	-12.2109
▁infectious	-12.211
▁credentials	-12.2111
[5]	-12.2115
▁Standard	-12.2119
▁buildings	-12.2121
▁$0	-12.2122
factors	-12.2131
▁unicorn	-12.2139
▁noon	-12.214
▁brick	-12.214
▁pastel	-12.2142
station	-12.2142
▁surrounding	-12.2143
▁config	-12.2145
ara	-12.2146
Moisture	-12.2146
▁median	-12.2146
▁3-	-12.2147
Fraud	-12.2147
Happy	-12.2148
1`	-12.2148
}.`)	-12.2148
variable	-12.2148
ETHICS	-12.2149
▁printer	-12.2155
▁phrase	-12.2158
▁lollipops	-12.2159
pred	-12.2162
▁lambda	-12.2166
HealthChecks	-12.2168
▁nostrils	-12.217
▁strangers	-12.2175
55	-12.2191
=>	-12.2193
▁shrink	-12.2195
RELATED	-12.2204
▁petted	-12.2204
▁pigs	-12.2206
Volume	-12.2208
("|	-12.2209
▁applicant	-12.221
▁hi	-12.221
▁currentTime	-12.2216
▁core	-12.2219
▁Over	-12.2226
$$	-12.2227
questions	-12.2228
▁Wednesday	-12.2229
▁Select	-12.2234
▁guests	-12.2237
Di	-12.2244
("1.	-12.2245
School	-12.2246
Displaying	-12.225
Excessive	-12.2251
cut	-12.2251
Basic	-12.2251
Black	-12.2251
Goodbye	-12.2251
morning	-12.2252
Cleansing	-12.2252
userConsent	-12.2255
bloodPressure	-12.2258
iness	-12.2259
Added	-12.2264
book	-12.2267
▁INPUT	-12.227
YES	-12.2271
▁winds	-12.2274
part	-12.2275
Feet	-12.2278
--------------+	-12.2287
Posts	-12.2287
}}	-12.229
av	-12.2293
▁modifications	-12.2294
("#	-12.2295
43	-12.2296
Follow	-12.2297
▁kne	-12.2301
▁divide	-12.2302
▁multiplie	-12.2303
Inform	-12.2304
TEMP	-12.2307
▁hydration	-12.2307
▁precautionary	-12.2307
strftime	-12.2307
OTC	-12.2307
▁byte	-12.231
▁40;	-12.2312
▁significantly	-12.2312
▁regulations	-12.2312
▁curled	-12.2316
▁Discount	-12.2318
▁Decrease	-12.2319
)?	-12.232
▁Google	-12.232
▁celsius	-12.2322
▁Flag	-12.2323
▁dairy	-12.2324
ship	-12.2324
Fine	-12.2327
Adult	-12.233
▁conditioners	-12.2335
▁Report	-12.2336
getTime	-12.2336
Actual	-12.2339
▁sql	-12.2341
(["	-12.2341
▁constraint	-12.2351
▁flavor	-12.2352
▁Append	-12.2353
Sanitizing	-12.2356
Calendar	-12.2356
Scheduling	-12.2356
maybe	-12.2356
office	-12.2356
latest	-12.2357
-----------+	-12.2358
▁US	-12.236
▁manicure	-12.2362
*"	-12.2366
▁Last	-12.2369
▁3.0	-12.2381
▁68	-12.2382
09	-12.2395
adult	-12.2397
column	-12.2398
▁shed	-12.2399
ab	-12.2399
▁shirts	-12.2405
▁sessions	-12.2409
-10	-12.2409
▁adjacent	-12.2409
DURATION	-12.2411
▁luggage	-12.2411
▁universe	-12.2411
▁velvet	-12.2411
▁Bubbles	-12.2411
▁chirped	-12.2412
▁poison	-12.2414
▁studies	-12.2415
▁vinegar	-12.2415
▁7;	-12.2416
Towel	-12.2419
]-(:	-12.2419
3);	-12.242
Col	-12.242
▁Jamie	-12.2427
▁stretching	-12.2427
▁DO	-12.2429
▁grains	-12.2429
▁Company	-12.2434
▁proceeds	-12.2434
door	-12.2436
▁hills	-12.2445
Should	-12.2452
▁cleaningMethod	-12.2458
PASS	-12.246
diabetes	-12.2461
airport	-12.2461
()))	-12.2461
heavy	-12.2461
unique	-12.2461
unsafe	-12.2461
monthlyPayment	-12.2461
fail	-12.2462
▁risky	-12.2463
▁component	-12.2466
savings	-12.2473
}')	-12.2473
1}	-12.2478
▁weatherData	-12.2484
version	-12.2487
Encourage	-12.2487
▁Dan	-12.2491
▁sqrt	-12.2493
itemType	-12.2493
▁Email	-12.2494
Note	-12.2497
▁Selected	-12.2497
▁nosebleed	-12.2501
ingredients	-12.2506
Project	-12.251
▁spoons	-12.2512
SYMPTOM	-12.2515
▁confident	-12.2515
▁racing	-12.2516
▁safari	-12.2516
▁wreck	-12.2516
▁precious	-12.2516
▁competition	-12.2517
About	-12.2518
▁gross	-12.2518
▁crashed	-12.2522
▁predicted	-12.2526
take	-12.2527
▁Julie	-12.2529
▁Park	-12.2533
▁Graph	-12.2533
Co	-12.2533
▁65,	-12.2537
▁mountains	-12.2537
▁shadows	-12.2538
Events	-12.2547
▁adjustments	-12.2553
▁mineral	-12.2555
reading	-12.2558
)}`);	-12.2559
checkup	-12.2566
Bathroom	-12.2566
CLEAN	-12.2567
Scores	-12.2567
commit	-12.2567
Department	-12.2567
material	-12.2567
hello	-12.2567
Peter	-12.257
▁twigs	-12.2572
▁cv	-12.2573
down	-12.2582
dest	-12.2584
'.")	-12.2585
Savings	-12.2587
HighEyeHygiene	-12.2588
=2)	-12.2588
▁cond	-12.2588
▁participants	-12.2589
500	-12.2592
Los	-12.2594
send	-12.2594
stepCount	-12.2595
▁42	-12.2605
}."	-12.2611
33	-12.2614
▁flutter	-12.2617
▁permit	-12.2623
!("{:?}",	-12.2623
▁bouncy	-12.2623
▁curiosity	-12.2623
▁pathogens	-12.2623
▁vigorously	-12.2623
call	-12.2623
▁sterile	-12.2626
▁scratched	-12.2626
▁expressed	-12.2626
▁cautious	-12.2627
▁Lucky	-12.2627
▁89	-12.2629
▁framework	-12.2629
0)	-12.2629
▁69	-12.263
▁Susan	-12.2631
Yum	-12.2632
scrub	-12.2632
}&	-12.2633
▁Symptoms	-12.2635
Machine	-12.2638
▁ranch	-12.2638
▁axis	-12.2639
▁diagnoses	-12.2643
tic	-12.2647
AS	-12.2651
Skin	-12.2653
exports	-12.2656
reminders	-12.2658
▁lighter	-12.266
Diabetes	-12.2666
▁watered	-12.2666
Electronic	-12.2667
▁processes	-12.2669
:///	-12.2672
Article	-12.2672
▁Unfortunately	-12.2673
screen	-12.2673
labels	-12.2674
Image	-12.2675
mild	-12.2675
always	-12.2675
teacher	-12.2675
Mean	-12.2675
including	-12.2676
▁lung	-12.2678
AND	-12.2683
▁.=	-12.2697
▁50%,	-12.2699
▁nicer	-12.27
▁22	-12.2702
▁75%	-12.2704
SugarIntake	-12.2708
▁durations	-12.2715
▁signed	-12.272
types	-12.272
▁speeds	-12.2726
▁<<<"$	-12.2727
▁Indicate	-12.2729
▁librarian	-12.273
▁proposed	-12.273
▁simplicity	-12.273
▁typing	-12.273
▁manually	-12.2731
▁prove	-12.2732
▁crep	-12.2734
▁2.0	-12.2734
▁disagreed	-12.2735
▁luxury	-12.2739
▁55	-12.2741
▁trustworthy	-12.2742
▁insights	-12.2743
init	-12.2747
Checks	-12.275
appid	-12.2753
Allergy	-12.2763
Topics	-12.2765
obj	-12.2768
attractions	-12.277
▁(0.00	-12.2771
▁CLEAN	-12.2774
was	-12.2774
▁remembers	-12.2774
▁tickets	-12.2774
▁Available	-12.2777
conservative	-12.2783
[-1]	-12.2783
white	-12.2783
▁duplicate	-12.2784
single	-12.2784
my	-12.2784
itchy	-12.2784
SUM	-12.2789
▁pearl	-12.279
Higher	-12.279
▁totalTime	-12.2794
[])	-12.2798
▁}),	-12.28
▁heading	-12.2801
ug	-12.2813
▁lick	-12.2813
Intake	-12.2816
▁efforts	-12.2822
▁60,	-12.2828
▁apologize	-12.2834
▁shock	-12.2836
Random	-12.2837
(5)	-12.2837
Rarely	-12.2839
▁patience	-12.2839
▁simultaneously	-12.2839
▁stirring	-12.2839
▁pupil	-12.2842
Send	-12.2843
▁$100	-12.2845
▁supervisor	-12.2846
▁minimal	-12.285
▁agrees	-12.285
▁Recommended	-12.2851
▁considers	-12.2852
▁homework	-12.2855
▁sliding	-12.2855
▁buffer	-12.2858
▁lettuce	-12.286
▁39	-12.2862
▁attendance	-12.2869
▁.6	-12.2875
▁lesser	-12.2876
▁beat	-12.2876
▁"1.	-12.2877
break	-12.2879
▁pitch	-12.2879
toe	-12.2881
▁specialty	-12.2882
Read	-12.2882
complete	-12.2883
▁aim	-12.2884
Phone	-12.2885
▁IFS	-12.2886
Sneezing	-12.2886
make	-12.2886
▁AES	-12.2891
"]]	-12.2891
Under	-12.2893
Sleep	-12.2893
present	-12.2893
strength	-12.2893
▁prefers	-12.2895
account	-12.2898
▁experiences	-12.2903
currentTime	-12.2904
3}	-12.2904
Notification	-12.291
followers	-12.2915
▁bleeds	-12.292
▁Answer	-12.2921
CourseEnrollment	-12.2941
▁Brand	-12.2942
▁struggle	-12.2944
engineering	-12.2946
Neutral	-12.2947
▁blows	-12.2947
▁lecture	-12.2949
▁zookeeper	-12.2949
FAIL	-12.2949
/2.5/	-12.2949
▁refreshed	-12.2949
▁peck	-12.295
▁mice	-12.2951
orders	-12.2953
▁Sure	-12.2954
▁BufferedReader	-12.2955
interestRate	-12.2955
▁unlocked	-12.2956
php	-12.2956
▁clarifying	-12.296
▁acorns	-12.2963
2022	-12.2964
additional	-12.2966
Intensity	-12.2969
▁SOAP	-12.2969
needs	-12.2973
▁buds	-12.2973
▁CheckUp	-12.2974
▁paints	-12.2974
▁`<	-12.2976
▁Arguments	-12.2977
land	-12.2979
▁leader	-12.2983
NOT	-12.2984
▁interested	-12.2984
▁Cholesterol	-12.2989
▁THRESHOLD	-12.2992
Home	-12.2993
▁64)	-12.2995
▁zigzag	-12.2995
▁Monitor	-12.2997
nasal	-12.2999
agg	-12.3001
Sensor	-12.3001
▁DAY	-12.3002
▁titles	-12.3004
capacity	-12.3004
spent	-12.3005
Sammy	-12.3005
▁SI	-12.3011
▁paragraph	-12.3013
▁bricks	-12.3018
LowRegular	-12.3018
span	-12.3021
="${	-12.3024
assessment	-12.3026
readonly	-12.3033
)=="	-12.3036
▁keeper	-12.304
Hygeine	-12.3041
▁Log	-12.3043
▁Path	-12.3044
Pain	-12.3047
▁Thread	-12.3048
(1);	-12.3051
▁1}	-12.3051
▁79	-12.3052
rad	-12.3053
[0]);	-12.3056
▁engage	-12.3057
Measurement	-12.3059
FREQUENCY	-12.306
-------------	-12.306
▁relievers	-12.306
Danger	-12.306
▁penalty	-12.3066
▁gained	-12.3066
▁CDC	-12.3068
▁responded	-12.3069
▁cheapest	-12.3069
▁repeated	-12.3069
oo	-12.307
▁OVER	-12.307
▁usize	-12.3071
▁examined	-12.3071
*$	-12.3071
▁Skip	-12.3073
▁packing	-12.3074
izing	-12.3074
mon	-12.3075
led	-12.3077
▁bmr	-12.3079
redness	-12.3082
▁sudo	-12.3084
▁master	-12.3088
▁90%	-12.3089
▁professions	-12.3092
▁hypertension	-12.3096
▁matrix	-12.3097
eyes	-12.3097
Flosses	-12.3098
▁90,	-12.3103
▁Severe	-12.3105
script	-12.3105
0.00	-12.3107
▁Paris	-12.311
Complete	-12.3111
Rain	-12.3113
▁recipe	-12.3114
Material	-12.3115
Strong	-12.3115
Scan	-12.3115
▁10000	-12.3116
Business	-12.3116
Resource	-12.3117
Maximum	-12.3117
Eventually	-12.3117
criteria	-12.3117
groupby	-12.3117
ExtremeNoseCare	-12.3119
▁$(($	-12.312
▁sting	-12.3125
▁occurrence	-12.3126
mo	-12.3137
8)	-12.3144
.";;	-12.3146
HighWeather	-12.3147
LY	-12.3154
Identity	-12.316
Like	-12.3165
▁Pip	-12.3166
observation	-12.3166
▁disagree	-12.3167
Field	-12.317
frequent	-12.3171
▁fabricType	-12.3171
▁fascinated	-12.3172
▁festival	-12.3172
▁statistics	-12.3172
[0-9]+$	-12.3172
▁hurried	-12.3173
▁Star	-12.3174
▁mysqli	-12.3174
▁cal	-12.3174
▁Class	-12.3175
▁extremeHygiene	-12.3176
▁demanded	-12.3176
na	-12.3177
▁Luna	-12.3178
▁mat	-12.3178
▁east	-12.318
Storage	-12.3184
fat	-12.3186
▁Enjoy	-12.3187
▁130	-12.3188
▁planted	-12.3189
▁soaring	-12.319
▁Color	-12.3193
zone	-12.3197
personalItem	-12.3198
▁bounds	-12.3199
▁west	-12.32
78	-12.3202
▁sadness	-12.3206
▁visitors	-12.321
▁calculateHigh	-12.3212
{}",	-12.3213
▁oats	-12.3214
ST	-12.3215
▁Eat	-12.3219
)})	-12.322
Sanitize	-12.3221
DAY	-12.3224
Monitor	-12.3224
▁COMMENT	-12.3225
urine	-12.3226
Left	-12.3227
Introduction	-12.323
Chapter	-12.323
forecast	-12.3231
styling	-12.3231
encrypted	-12.3231
][0]	-12.3232
>();	-12.3233
▁orderTotal	-12.3234
away	-12.3241
Passed	-12.3241
RiskLevel	-12.3246
▁videos	-12.3247
0.2	-12.3251
Tip	-12.3251
+1,	-12.3252
▁bye	-12.3253
▁responds	-12.3257
{};	-12.3262
retweets	-12.3266
Wool	-12.327
▁le	-12.3272
2"	-12.3276
▁tokens	-12.3279
purchase	-12.328
▁flood	-12.3281
▁4.0	-12.3285
▁determineHigh	-12.3285
REQUIRES	-12.3286
▁congratulatory	-12.3286
▁solely	-12.3286
▁victory	-12.3289
▁clf	-12.3289
▁Welcome	-12.3289
▁illustrate	-12.3292
Violation	-12.3292
▁released	-12.3292
▁approve	-12.3293
▁recovery	-12.3296
▁facial	-12.3296
▁ADD	-12.33
ual	-12.33
▁hazards	-12.33
▁Fair	-12.3302
▁stdin	-12.3303
▁-5	-12.3312
Performed	-12.3314
▁mixing	-12.3314
Equipment	-12.3314
▁loc	-12.3314
oom	-12.3318
▁0.5,	-12.3322
()}	-12.3324
▁updateHygiene	-12.3325
▁Al	-12.3328
▁cuddle	-12.3332
46	-12.3332
ITEM	-12.3343
PRODUCT	-12.3344
▁marker	-12.3344
▁threat	-12.3345
console	-12.3346
minimum	-12.3346
Lisa	-12.3346
▁rained	-12.3347
Sum	-12.3347
Walking	-12.335
[2]}	-12.3354
▁attributes	-12.3355
▁getConsent	-12.3355
SafetyLevel	-12.3356
▁$%	-12.3359
appointments	-12.3359
▁Income	-12.3361
3]	-12.3362
▁lemons	-12.3364
Taken	-12.3365
taken	-12.3369
▁(#{	-12.3374
▁click	-12.3378
21	-12.3381
▁emails	-12.3384
▁.25	-12.3388
▁*;	-12.3389
=10	-12.3389
▁clinic	-12.3391
▁Violation	-12.3393
Rows	-12.3394
▁forms	-12.3396
SAFETY	-12.3401
▁brief	-12.3401
▁organizing	-12.3401
▁robust	-12.3401
responsibleParty	-12.3401
▁losing	-12.3401
▁teasing	-12.3401
▁muddy	-12.3401
▁fashion	-12.3403
▁meats	-12.3403
▁bottles	-12.3403
:"))	-12.3406
but	-12.3406
Builder	-12.3406
▁weighed	-12.3407
stream	-12.3416
▁restricted	-12.3417
▁worst	-12.3418
-5	-12.3419
ca	-12.3422
Exists	-12.3425
▁booleans	-12.3427
▁100:	-12.3428
▁pct	-12.3432
=[	-12.3436
▁+----+-------	-12.3438
▁15;	-12.3439
bound	-12.3442
▁Foreign	-12.3445
▁NEW	-12.3445
Secret	-12.3447
▁knees	-12.3448
▁hc	-12.3449
▁yn	-12.3451
Rest	-12.3452
Minutes	-12.3454
rc	-12.3454
vehicles	-12.3457
▁cr	-12.3461
SECRET	-12.3461
Hospital	-12.3461
period	-12.3462
▁clients	-12.3462
▁males	-12.3465
▁promptly	-12.3465
▁occurrences	-12.3466
}%"	-12.3468
patientAge	-12.347
skinType	-12.347
▁usages	-12.3472
▁Address	-12.3476
▁leads	-12.3476
transactions	-12.3478
▁placeholders	-12.3479
▁epo	-12.348
RiskScore	-12.3481
POST	-12.3482
▁assignment	-12.3484
▁la	-12.3487
▁odors	-12.3489
▁delays	-12.3491
Report	-12.3492
nTotal	-12.3495
cr	-12.3502
▁piles	-12.3504
FACTOR	-12.3516
▁Subtract	-12.3517
▁damp	-12.3518
Handling	-12.352
▁plain	-12.3522
▁loans	-12.3525
▁introduced	-12.3525
▁suspicious	-12.3528
▁git	-12.353
▁upcoming	-12.3535
▁cigarettes	-12.3538
[1]);	-12.3538
▁wondering	-12.3541
▁{//	-12.3541
▁contaminants	-12.3541
▁science	-12.3545
▁density	-12.3547
▁Properties	-12.3549
ReliabilityScore	-12.3551
protected	-12.3552
Met	-12.3553
▁Updated	-12.3555
▁sisters	-12.3559
▁weep	-12.3561
▁itemName	-12.3563
▁Insufficient	-12.3564
medications	-12.3567
Target	-12.3571
▁mechanism	-12.3571
▁sport	-12.3572
▁colored	-12.3575
▁numPeople	-12.3575
disinfect	-12.3576
▁Phone	-12.3576
gen	-12.3577
Opaque	-12.3578
Weekly	-12.3579
Airport	-12.3579
Properly	-12.3579
somewhat	-12.3579
allergies	-12.3579
Susie	-12.3579
Proceeding	-12.3582
sanitized	-12.3582
▁cast	-12.3584
▁hairstyle	-12.3585
▁weekend	-12.359
ml	-12.359
*)	-12.3593
stars	-12.3606
ToString	-12.3611
yl	-12.3619
▁{{	-12.3621
ative	-12.3625
▁blink	-12.3632
Attraction	-12.3633
▁LOOP	-12.3635
▁advisable	-12.3635
▁evaluating	-12.3635
▁poking	-12.3635
FLOSSING	-12.3636
▁reasonable	-12.3636
▁established	-12.3637
▁pi	-12.3637
▁shivered	-12.3639
▁TimeSpan	-12.364
Nn	-12.364
▁Logic	-12.3641
▁buying	-12.3643
("3.	-12.3643
▁electric	-12.3644
▁doorknobs	-12.3644
▁comforted	-12.3644
▁pounds	-12.3648
68	-12.3648
▁decorated	-12.3649
▁cybersecurity	-12.3652
▁bowed	-12.3653
▁pub	-12.3654
▁31	-12.3659
▁cutoff	-12.3661
▁0.9)	-12.3663
process	-12.3668
▁guys	-12.3673
Mr	-12.3674
▁45)	-12.3675
▁limiting	-12.3676
▁polyester	-12.3679
▁heel	-12.368
▁ma	-12.3682
5.	-12.3682
▁tastes	-12.369
▁lip	-12.3691
Heavy	-12.3698
Confidential	-12.3698
Unfortunately	-12.3698
polarity	-12.3698
Mandy	-12.3698
revenue	-12.3699
aymentProcessing	-12.3699
Monday	-12.3699
▁effect	-12.37
▁patientName	-12.3701
▁patientAge	-12.3702
▁(`<	-12.3708
▁mid	-12.371
their	-12.371
Class	-12.3715
▁rely	-12.372
▁8;	-12.3721
=4	-12.3731
con	-12.3734
Avoiding	-12.3734
ExtremeFinance	-12.3734
')),	-12.3738
MA	-12.3739
▁expertiseLevel	-12.3741
ions	-12.3741
passengers	-12.3742
▁scatter	-12.3748
▁tremble	-12.3749
nNo	-12.3754
employee	-12.3754
INFINITY	-12.3754
▁altogether	-12.3754
▁worries	-12.3754
▁policeman	-12.3754
▁customerID	-12.3754
Ingredient	-12.3755
Unavailable	-12.3756
▁FOREACH	-12.3757
HighFinance	-12.3761
▁urged	-12.3761
▁contagious	-12.3761
▁"2.	-12.3762
▁eyewear	-12.3763
ct	-12.3765
▁runtime	-12.3766
▁shoulders	-12.3768
Underweight	-12.3771
(30),	-12.3771
ff	-12.3779
▁polishing	-12.378
Doe	-12.3785
▁differently	-12.3785
Utensil	-12.3787
flights	-12.3788
----------+-----	-12.3791
▁demographics	-12.3797
ui	-12.38
})-[	-12.38
ERROR	-12.3802
▁principles	-12.3803
readLine	-12.3804
▁arrive	-12.3806
▁curtains	-12.3808
Cells	-12.3808
▁.3	-12.3809
▁beard	-12.381
▁pockets	-12.3811
▁absolute	-12.3811
▁smokes	-12.3815
▁assumed	-12.3816
▁prod	-12.3817
Twice	-12.3818
Solution	-12.3818
Uber	-12.3819
hospital	-12.3819
Common	-12.3819
before	-12.3819
alert	-12.3819
passed	-12.3824
Violations	-12.3824
▁ambient	-12.3834
▁ws	-12.3836
Likes	-12.3845
semi	-12.3846
▁80,	-12.385
▁yawn	-12.3865
flow	-12.3874
met	-12.3874
▁outlining	-12.3874
▁whistling	-12.3874
▁hazardous	-12.3874
▁circulation	-12.3874
▁latter	-12.3875
▁sidewalk	-12.3875
▁classified	-12.3876
nIn	-12.3877
▁operating	-12.3878
▁consultation	-12.3887
▁Mocked	-12.3893
▁ml	-12.3899
▁minTemp	-12.3909
▁25%	-12.3916
visited	-12.3923
▁Press	-12.3923
▁Air	-12.3925
][:	-12.393
▁nightmare	-12.3932
▁stair	-12.3933
]['	-12.3935
previous	-12.3936
Head	-12.3938
Down	-12.3939
Account	-12.394
inventory	-12.3941
Shaping	-12.3941
mildew	-12.3941
existing	-12.3941
25,	-12.3942
inputs	-12.3948
▁budge	-12.3949
▁officer	-12.3954
Statement	-12.3955
Query	-12.3956
:</	-12.3957
tor	-12.3958
▁PersonalItem	-12.3967
Diet	-12.3967
charA	-12.3973
fully	-12.3979
93	-12.3983
hashtags	-12.3986
TH	-12.3992
Parent	-12.3995
▁babies	-12.3996
▁crucial	-12.3996
▁downstairs	-12.3996
▁ladybug	-12.3996
▁hydrating	-12.3996
▁OUTER	-12.3996
Employee	-12.3999
Individual	-12.3999
▁disturbed	-12.4
▁punished	-12.4
▁Mickey	-12.4001
▁guessed	-12.4005
▁alerts	-12.4009
▁surgery	-12.401
▁plaintext	-12.4017
▁nurses	-12.4019
LE	-12.4021
edu	-12.4025
oh	-12.4033
▁congested	-12.4036
sec	-12.4039
▁uppercase	-12.4039
▁laptop	-12.404
IT	-12.4041
▁Destination	-12.4045
Session	-12.4048
startTime	-12.4053
▁Monday	-12.4054
▁terminate	-12.4056
'},	-12.4058
Script	-12.4062
Full	-12.4063
occupancy	-12.4063
Round	-12.4064
Sugar	-12.4064
tolerance	-12.4064
Which	-12.4064
scanner	-12.4064
degree	-12.4064
general	-12.4064
bike	-12.4064
2_	-12.4065
loop	-12.4065
prev	-12.4067
Visits	-12.407
touched	-12.407
answers	-12.4075
ile	-12.4077
userResponse	-12.4079
▁skinType	-12.4083
+1]	-12.4086
▁loads	-12.4097
critical	-12.41
▁Building	-12.4109
ExtremeHandWash	-12.4119
▁marriage	-12.412
▁arise	-12.412
mostly	-12.4121
▁Tiny	-12.4126
Hot	-12.4128
▁shivering	-12.4128
▁groceries	-12.4128
ag	-12.4129
▁RISK	-12.4131
mi	-12.4132
▁discovering	-12.4132
▁Sadly	-12.4133
▁Manager	-12.4133
▁linear	-12.4135
▁Frank	-12.4136
▁Given	-12.4137
▁Nina	-12.4138
"]:	-12.4139
flu	-12.4139
▁traverse	-12.4141
▁notifying	-12.4143
Format	-12.4148
aws	-12.415
TotalCost	-12.4154
▁Under	-12.416
Shoe	-12.4161
+1))	-12.4164
▁Lyft	-12.4164
54	-12.4165
ish	-12.4171
▁posted	-12.4174
▁Options	-12.4179
▁humidifier	-12.418
▁hw	-12.4181
Handle	-12.4184
▁lowHygiene	-12.4186
Active	-12.4187
difficulty	-12.4189
YEAR	-12.4189
Paris	-12.4189
root	-12.4189
lotion	-12.419
Preventing	-12.4193
optional	-12.4193
▁spraying	-12.4197
currentItem	-12.4197
▁region	-12.4211
ws	-12.422
Username	-12.4227
▁dinosaurs	-12.4232
66	-12.4234
ism	-12.4236
AR	-12.4236
▁'${	-12.4237
▁bend	-12.4239
▁ribbons	-12.4239
▁cones	-12.4242
Visible	-12.4245
▁uncertainty	-12.4245
▁zipped	-12.4245
77	-12.4246
▁accumulated	-12.4247
▁siren	-12.4247
Between	-12.4247
he	-12.4248
orderTotal	-12.4248
lu	-12.4249
▁Ollie	-12.425
Inspection	-12.425
apple	-12.4252
▁Identify	-12.4253
▁wonders	-12.4255
amp	-12.4256
▁treatmentPlan	-12.4256
▁lied	-12.4256
Transformation	-12.4257
▁veg	-12.4261
▁radius	-12.4263
Fatal	-12.4263
▁Sunny	-12.4265
▁screaming	-12.4269
▁Goals	-12.427
Exp	-12.427
▁querying	-12.4274
▁|<	-12.4276
credits	-12.4279
▁${#	-12.4281
-7	-12.4282
Val	-12.4286
▁isValidInput	-12.4288
cc	-12.4291
▁checkHigh	-12.4294
▁peppers	-12.4296
▁Probability	-12.4297
▁lightly	-12.4298
▁(3,	-12.4298
▁History	-12.4299
▁stdout	-12.4299
▁moisturizers	-12.4303
0.7	-12.4311
94	-12.4315
DATA	-12.4315
medicine	-12.4316
system	-12.4316
paper	-12.4316
ORDER	-12.4317
Append	-12.4317
AES	-12.4318
Eat	-12.4322
▁vital	-12.4324
▁calculateEx	-12.4327
curly	-12.4333
▁7,	-12.4337
▁2.5	-12.4343
▁YEAR	-12.4344
reg	-12.4347
▁bytes	-12.4354
perform	-12.4355
▁scar	-12.4358
▁Cold	-12.436
sex	-12.4364
Walk	-12.4365
▁configuration	-12.4371
▁jogged	-12.4371
▁frosting	-12.4372
▁purred	-12.4372
▁ventilation	-12.4373
▁_=>	-12.4373
▁formatting	-12.4375
=?	-12.4376
relationships	-12.4377
▁January	-12.4379
▁twirling	-12.438
▁indexes	-12.4381
▁50,	-12.4381
▁reject	-12.4382
▁Josh	-12.4383
----------+	-12.4384
ears	-12.4387
{})	-12.4388
booking	-12.4388
▁Adjust	-12.4393
▁whistled	-12.4398
▁zooming	-12.4398
▁Anne	-12.4398
=2))	-12.4399
▁overdue	-12.44
▁Train	-12.4412
------------+	-12.4416
Author	-12.4417
+="	-12.442
Comments	-12.4423
Exercises	-12.4426
Buy	-12.4437
▁Passed	-12.4438
Oil	-12.444
ta	-12.4441
Smartphone	-12.4443
Master	-12.4443
probability	-12.4443
inclusive	-12.4444
EXISTS	-12.4444
Emily	-12.4444
calendar	-12.4444
▁fiber	-12.4444
▁washHands	-12.4444
nThe	-12.4445
box	-12.4447
-----+----------	-12.445
▁prototype	-12.445
Actions	-12.4451
▁chemical	-12.4452
Sanitization	-12.4452
1',	-12.446
PatientID	-12.446
trends	-12.4461
ations	-12.4461
iterate	-12.4462
config	-12.4469
▁semester	-12.447
▁begins	-12.4481
Trips	-12.4483
▁determineLow	-12.4488
▁biased	-12.4492
▁tickle	-12.4499
▁ALTER	-12.4499
▁steep	-12.4499
▁giggling	-12.45
AfterUsingToilet	-12.45
▁ANY	-12.4501
120	-12.4502
▁abs	-12.4503
▁Unique	-12.4506
ENT	-12.4507
Profession	-12.4508
pref	-12.4509
▁rev	-12.4509
▁tonight	-12.451
▁Repair	-12.4511
header	-12.4512
▁everybody	-12.4514
▁fitting	-12.4517
▁costumes	-12.452
▁vision	-12.4525
▁Further	-12.4527
▁extracted	-12.4527
▁Inc	-12.4532
▁soldiers	-12.4533
▁Module	-12.4534
▁snakes	-12.4535
Toothbrush	-12.4536
ls	-12.4538
▁Negative	-12.4542
Records	-12.4549
rp	-12.455
articles	-12.4552
Critical	-12.4553
▁bathrooms	-12.4556
▁Session	-12.4558
▁TrustLevel	-12.4559
nLow	-12.4566
▁Moisturize	-12.4569
▁Measurement	-12.4572
PRICE	-12.4572
MARKDOWN	-12.4574
shoeSize	-12.4574
Elbow	-12.4574
COVID	-12.4574
AVG	-12.4574
discounts	-12.4575
----+-----------	-12.4576
92	-12.458
▁serving	-12.4585
ingCleanliness	-12.4588
▁phones	-12.4589
▁updateHigh	-12.4593
']:	-12.4601
▁proteins	-12.4603
▁weightage	-12.4603
Mouth	-12.4609
0000	-12.461
▁Excellent	-12.461
▁enforce	-12.462
▁transformLow	-12.4626
IMUM	-12.4629
PROGRAM	-12.4629
▁possibility	-12.4629
▁Chirpy	-12.4629
▁awesome	-12.4629
▁Pinky	-12.463
Allow	-12.4631
Teacher	-12.4632
▁wins	-12.4633
▁bacterial	-12.4633
▁addresses	-12.4634
relationship	-12.4636
▁died	-12.4637
Sample	-12.4638
▁communication	-12.4638
▁Delete	-12.4639
▁Jess	-12.464
▁blooming	-12.4642
▁Abigail	-12.4647
[1:]	-12.4648
techniques	-12.4648
▁Sorry	-12.4649
▁catches	-12.4649
pa	-12.465
▁Big	-12.4652
Transformer	-12.4653
▁updatedMessage	-12.4655
▁normally	-12.4657
▁Cut	-12.4658
▁>=18	-12.4658
▁adjusting	-12.4661
▁numerical	-12.4662
party	-12.4665
▁humid	-12.4667
Bowl	-12.467
Red	-12.4672
doc	-12.4675
▁width	-12.4679
▁100);	-12.469
▁Activity	-12.4693
▁strike	-12.4697
Drink	-12.47
Watch	-12.4705
department	-12.4706
Laundry	-12.4706
categories	-12.4706
trimming	-12.4706
▁6;	-12.4711
lab	-12.4713
▁76	-12.4714
stored	-12.4715
▁98	-12.4717
▁sh	-12.4723
wait	-12.4724
Cloth	-12.4728
Handler	-12.4733
il	-12.4733
▁"|	-12.4735
▁0.6)	-12.4738
▁signal	-12.4742
Pat	-12.4748
22	-12.4751
ExtremeHairCare	-12.4753
)->	-12.4756
▁+------	-12.4757
▁ashtray	-12.4761
▁Specifically	-12.4761
▁wagging	-12.4761
Excuse	-12.4762
▁85)	-12.4763
▁hugging	-12.4764
▁golf	-12.4766
▁struggled	-12.4767
▁buses	-12.4768
▁specialized	-12.477
▁USE	-12.477
▁monsters	-12.4772
downcase	-12.4772
▁focused	-12.4772
▁Min	-12.4773
ShippingCost	-12.4774
Permission	-12.4774
▁movies	-12.4778
ShampooTechnique	-12.4778
";;	-12.478
ExtremePersonal	-12.4782
▁Likes	-12.4788
▁50.0	-12.4792
▁pH	-12.4794
▁broom	-12.4796
▁sights	-12.4798
▁University	-12.4804
[1];	-12.4805
▁Missing	-12.4805
UN	-12.4805
###	-12.4816
*100)	-12.4816
▁frown	-12.4821
Analyze	-12.4823
▁emp	-12.4828
▁transformHigh	-12.4832
consents	-12.4833
▁trauma	-12.4834
WEIGHT	-12.4836
RESPONSE	-12.4837
engine	-12.4837
Less	-12.4837
Three	-12.4838
prescription	-12.4838
Operation	-12.4838
View	-12.4839
pricing	-12.4839
RETURN	-12.4839
Refer	-12.484
folder	-12.484
allowed	-12.4841
sanitizers	-12.4841
▁former	-12.4843
dob	-12.4849
▁agent	-12.4852
EPO	-12.4852
▁12;	-12.4859
UserInput	-12.4865
▁Primary	-12.4866
▁Line	-12.4877
3;	-12.4881
exams	-12.4882
▁Needed	-12.4887
handWashing	-12.4889
▁boss	-12.489
▁circus	-12.4894
▁truly	-12.4894
Discharge	-12.4895
▁firmly	-12.4895
▁authorized	-12.4895
Fat	-12.4896
checkHygiene	-12.4896
▁toothbrushes	-12.4897
?`);	-12.4899
veg	-12.49
▁bloomed	-12.4901
▁solving	-12.4901
▁expiration	-12.4902
▁SurveyResponse	-12.4902
▁combin	-12.4902
▁argued	-12.4903
Share	-12.4904
▁rockets	-12.4905
Cuticles	-12.4907
St	-12.4908
▁Transactions	-12.4909
▁folding	-12.4912
Sanitized	-12.4912
$(	-12.4914
▁wandering	-12.4915
nActual	-12.4915
555	-12.4917
▁baked	-12.492
83	-12.4924
(2,	-12.4928
SafetyRating	-12.4933
▁zipcode	-12.4933
58	-12.4935
Regularly	-12.4939
▁die	-12.4941
("<	-12.4943
▁$?	-12.4949
gum	-12.4953
▁(1)	-12.4954
om	-12.4957
▁avgScore	-12.4963
▁conservative	-12.4963
▁67	-12.4963
▁totalPrice	-12.4964
Show	-12.497
Sensitive	-12.4972
Symbol	-12.4973
LENGTH	-12.4973
FEMALE	-12.4973
MONTH	-12.4974
markdown	-12.4974
earwax	-12.4975
▁Oily	-12.4975
nHigh	-12.4975
▁Range	-12.4981
▁keeps	-12.4984
seat	-12.4986
▁muffins	-12.4987
charge	-12.4987
▁screening	-12.4995
Highest	-12.4998
▁Variables	-12.5015
▁honk	-12.502
▁definitions	-12.5022
▁balancing	-12.5029
▁daisies	-12.5029
▁deciding	-12.5029
▁engaging	-12.5029
UserEngagement	-12.503
▁reluctantly	-12.503
▁slapped	-12.503
LINE	-12.5031
▁handWashing	-12.5032
▁entrance	-12.5034
▁closes	-12.5034
struct	-12.5037
▁heavily	-12.5038
STEPS	-12.5038
▁Towel	-12.5039
Row	-12.5041
▁impacted	-12.5042
dr	-12.5043
▁EXTRACT	-12.5043
▁flash	-12.5044
OnlineShoppingP	-12.5045
▁decreased	-12.5045
▁hardcode	-12.5046
▁strands	-12.5047
▁clearance	-12.5047
Engineers	-12.5048
▁obesity	-12.5048
▁Nodes	-12.5049
▁Protection	-12.5053
▁Carl	-12.5056
▁mmHg	-12.5059
soil	-12.5063
"})-[:	-12.5066
▁400	-12.5069
▁concepts	-12.5069
em	-12.5072
▁confirming	-12.5072
1)-[	-12.5075
Char	-12.5076
▁sigh	-12.5077
Scrubbing	-12.508
Ratio	-12.5082
▁25,	-12.509
71	-12.5094
sugarIntake	-12.5097
▁bob	-12.5097
rt	-12.5099
ba	-12.5099
▁showering	-12.5101
avoid	-12.5101
Match	-12.5103
▁tune	-12.5103
▁conclusion	-12.5105
routes	-12.5108
Part	-12.5109
Caution	-12.511
1/	-12.511
Warm	-12.511
Regex	-12.5111
▁minerals	-12.5111
chosen	-12.5111
chapter	-12.5111
delay	-12.5111
should	-12.5111
entries	-12.5111
Scanner	-12.5112
prod	-12.5114
▁conflict	-12.5116
▁Cough	-12.5118
▁rocked	-12.5119
May	-12.512
▁TOILET	-12.512
1.0	-12.5123
▁8,	-12.5123
▁packaging	-12.5127
]])	-12.5132
enrollments	-12.5132
▁semi	-12.5134
_000	-12.5145
-2	-12.5152
Techniques	-12.5153
(40)	-12.5154
▁cleanse	-12.5156
▁interact	-12.5157
umentOutOfRange	-12.5166
▁bunnies	-12.5166
▁enumeration	-12.5166
▁placing	-12.5166
▁venture	-12.5166
▁patted	-12.5167
▁clarity	-12.5167
▁diagnosed	-12.5167
▁Lastly	-12.5168
rm	-12.517
fungal	-12.5173
▁technology	-12.5174
▁drivers	-12.5178
▁unsure	-12.5178
▁Infection	-12.5179
▁carries	-12.518
-12	-12.5186
electronic	-12.5186
metric	-12.5186
▁validat	-12.5187
▁manual	-12.5189
================	-12.5189
Electronics	-12.5192
SET	-12.5192
Severity	-12.5197
▁.8	-12.5197
▁spiders	-12.52
1",	-12.52
▁overlapping	-12.5202
*100	-12.5204
Bar	-12.5207
distances	-12.5209
daysSinceLast	-12.5212
HighNailCare	-12.5216
▁shaped	-12.5219
nRemember	-12.522
indicating	-12.5223
Precautions	-12.5227
▁sentimentScore	-12.5228
Changes	-12.5232
HealthCheckUp	-12.5233
uck	-12.5234
FORMAT	-12.5235
▁seagull	-12.5241
Experience	-12.5242
Cell	-12.5244
Bath	-12.5249
Computer	-12.5249
▁birth	-12.525
Gently	-12.525
injury	-12.525
activities	-12.525
algorithm	-12.525
visible	-12.525
▁currentDate	-12.5251
▁handHygiene	-12.5256
sqlite	-12.5257
actual	-12.5257
)/(	-12.5261
▁bat	-12.5263
ring	-12.5266
Patients	-12.5266
▁$2	-12.5266
how	-12.527
Flossed	-12.5271
cell	-12.5272
▁1):	-12.5272
▁"3.	-12.5275
▁/=	-12.5279
▁sensors	-12.5282
▁+---------	-12.5293
Practices	-12.5294
▁.7	-12.53
▁hygieneScore	-12.5302
HEART	-12.5305
▁indentation	-12.5305
▁mixture	-12.5305
▁shelves	-12.5305
▁tugged	-12.5305
▁utilizing	-12.5305
yyyy	-12.5305
▁Bessie	-12.5305
▁equation	-12.5305
▁barely	-12.5306
Alright	-12.5306
▁signify	-12.5307
▁cardiovascular	-12.5309
▁TextBlob	-12.531
▁capture	-12.531
▁Betty	-12.5314
▁Tara	-12.5314
▁ERD	-12.5314
▁relations	-12.5315
Long	-12.5316
▁concentration	-12.5321
▁Temp	-12.5321
▁yelling	-12.5321
▁constitutes	-12.5322
▁Compare	-12.5324
practice	-12.5326
USED	-12.5327
▁belly	-12.5333
▁99	-12.5338
▁ACTION	-12.534
Finance	-12.5343
▁Car	-12.5343
site	-12.5344
▁74)	-12.5347
▁Prescription	-12.5352
07	-12.5354
▁irritants	-12.5354
▁iv	-12.5356
fruits	-12.536
friend	-12.5363
▁Monthly	-12.5365
▁MARKDOWN	-12.5365
▁Need	-12.5369
YYYY	-12.537
▁Target	-12.5372
▁Chapter	-12.5374
▁1500	-12.5379
▁`{	-12.538
▁rested	-12.538
Concern	-12.5382
Criteria	-12.5384
▁markers	-12.5384
rh	-12.5385
Prevention	-12.5389
▁sr	-12.539
SECURITY	-12.539
Nylon	-12.539
Redness	-12.539
Jake	-12.5391
Put	-12.5391
Press	-12.5391
Coughing	-12.5392
looking	-12.5393
▁decongestant	-12.5393
blow	-12.5395
▁grand	-12.5396
Accessories	-12.5398
▁---------	-12.5402
pro	-12.5402
▁sugarIntake	-12.5407
productName	-12.5413
▁interests	-12.5415
HygieneStatus	-12.542
▁legal	-12.5421
Recently	-12.5423
▁filling	-12.5424
[];	-12.5427
uk	-12.543
WaterTemp	-12.5434
▁'*	-12.544
▁kneel	-12.5444
▁loving	-12.5445
▁peel	-12.5445
64>	-12.5446
▁swoop	-12.5446
SPEED	-12.5446
▁bodies	-12.5446
▁burst	-12.5446
▁grandmother	-12.5446
▁nozzle	-12.5446
▁trading	-12.5446
▁stitch	-12.5448
▁dragg	-12.5448
▁Promise	-12.5449
▁dermatologist	-12.5449
▁particles	-12.5449
▁till	-12.5449
▁kneeled	-12.5449
▁bravery	-12.545
▁portion	-12.545
▁splashes	-12.5451
▁mucus	-12.5451
▁`[	-12.5452
▁disclaimer	-12.5452
▁triggered	-12.5452
▁environments	-12.5453
▁'',	-12.5455
▁Waxed	-12.5456
▁episode	-12.5458
▁Lizzy	-12.546
WorkoutPlan	-12.546
▁polished	-12.5461
▁delivered	-12.5464
▁[1,	-12.5468
▁venue	-12.5468
▁boom	-12.547
▁Cream	-12.5472
▁ruler	-12.5473
▁voices	-12.548
Bachelor	-12.5483
Guidelines	-12.5487
▁pebbles	-12.549
EAR	-12.5498
---+------------	-12.5499
Keys	-12.5504
▁Maintain	-12.5504
▁Higher	-12.5504
▁Watch	-12.5506
ToothBrushing	-12.551
▁sighs	-12.5512
trusted	-12.5515
▁displayLow	-12.5516
▁sweets	-12.5517
)));	-12.5519
▁females	-12.552
rafficCongestion	-12.5522
▁prediction	-12.5526
shampooTechnique	-12.5526
▁spike	-12.5528
glasses	-12.5532
arrival	-12.5532
Colgate	-12.5533
FITNESS	-12.5533
swelling	-12.5534
Back	-12.5534
Determining	-12.5534
remaining	-12.5534
MERGE	-12.5534
Function	-12.5534
please	-12.5534
Many	-12.5536
▁athlete	-12.5539
toothBrushing	-12.5539
lens	-12.5542
so	-12.5543
▁transfer	-12.5545
▁Password	-12.5547
cal	-12.5552
userAge	-12.5552
does	-12.5555
,%	-12.5555
ning	-12.5558
setting	-12.5559
surfaces	-12.5563
EarWax	-12.5564
▁1.2	-12.5564
fi	-12.5568
nUse	-12.557
▁0.8)	-12.557
Online	-12.557
▁80;	-12.5572
zA	-12.5573
transformedValue	-12.5576
DentalFloss	-12.5576
▁Field	-12.5582
▁multiply	-12.5583
▁triggers	-12.5584
▁hasConsent	-12.5588
▁achieving	-12.5589
▁claps	-12.5589
EXAM	-12.5589
▁storekeeper	-12.5589
▁fingernails	-12.5591
▁familiar	-12.5592
▁specifications	-12.5593
payments	-12.5593
▁goodnight	-12.5593
Authorization	-12.5593
▁seesaw	-12.5594
▁millimeters	-12.5594
▁Tips	-12.5595
(3),	-12.5596
▁soften	-12.5598
Uses	-12.5598
▁10:	-12.5599
▁registered	-12.56
▁assets	-12.56
▁wedding	-12.56
▁camping	-12.5601
▁Diagram	-12.5602
▁Encrypt	-12.5604
TYPES	-12.5605
▁occursin	-12.5605
ense	-12.5605
▁darker	-12.5612
▁emailAddress	-12.5612
▁decrypt	-12.5613
▁organizational	-12.5615
5:	-12.5615
▁inch	-12.5617
DIR	-12.5618
%2	-12.562
▁Practice	-12.5628
)=	-12.5629
nWe	-12.5632
▁Room	-12.5633
Adults	-12.5637
ExamResults	-12.5638
Too	-12.564
EducationGrade	-12.564
▁Toilets	-12.5644
...');	-12.5648
▁rinses	-12.5651
▁PatientData	-12.5652
sometimes	-12.5655
▁Optional	-12.5655
▁initializ	-12.5656
▁screenings	-12.5657
▁Sleep	-12.5662
▁param	-12.5662
house	-12.5669
encrypt	-12.5674
ng	-12.5675
Appointments	-12.5676
▁.9	-12.5676
Night	-12.5677
transit	-12.5677
glucose	-12.5677
Single	-12.5678
intensity	-12.5678
White	-12.5678
width	-12.5678
Foreign	-12.5678
NEW	-12.5679
sentence	-12.5679
adjusted	-12.5679
thank	-12.5679
meal	-12.5681
▁slices	-12.5687
---------------|	-12.5688
ki	-12.569
("2.	-12.569
Platform	-12.5695
HighClothing	-12.5698
▁drug	-12.5698
:',	-12.5698
▁trusts	-12.5701
63	-12.5718
Management	-12.572
(100)	-12.572
FoodItem	-12.5726
▁intermediates	-12.5732
▁burrow	-12.5734
▁mathematical	-12.5734
▁prettiest	-12.5734
▁reusable	-12.5734
direction	-12.5735
▁contest	-12.5735
▁maintainable	-12.5737
▁200)	-12.5737
Inches	-12.5737
HotelBooking	-12.5738
▁doggy	-12.5738
▁scrape	-12.574
▁macro	-12.574
▁analyses	-12.574
32.	-12.574
▁0.;	-12.5742
checkExtreme	-12.5742
Oral	-12.5742
▁maxTemp	-12.5744
▁updatedText	-12.5748
Values	-12.5754
▁Lotion	-12.5756
▁24.9)	-12.5761
violation	-12.5762
Collections	-12.5768
▁plt	-12.577
']);	-12.5773
3"	-12.5778
▁Base	-12.5778
▁advises	-12.5782
Dear	-12.5782
▁+-------------+	-12.5784
▁waiter	-12.5785
▁boards	-12.5787
Recent	-12.579
(8,	-12.5791
▁userResponse	-12.5794
▁OF	-12.5796
side	-12.5797
▁Hospital	-12.5804
--;	-12.5807
ator	-12.5808
▁staring	-12.581
▁Point	-12.5811
moisturize	-12.5817
specific	-12.5819
▁0),	-12.5819
OralHealthHabit	-12.582
!();	-12.5822
▁Assess	-12.5823
▁surroundings	-12.5825
Could	-12.5825
Floor	-12.5825
MALE	-12.5825
facebook	-12.5825
polyester	-12.5825
Henry	-12.5826
deadline	-12.5826
Fluffy	-12.5826
Managing	-12.5826
Prompt	-12.5826
prevention	-12.5826
+)	-12.5826
Moral	-12.5828
(",");	-12.583
▁peer	-12.5833
chars	-12.5836
▁minimize	-12.5836
Reviews	-12.584
biases	-12.5841
(0.	-12.5841
Seat	-12.5842
▁'{}'	-12.5843
}.")	-12.5844
productID	-12.5846
1))	-12.5848
dy	-12.5849
▁dispenser	-12.585
▁dis	-12.5853
▁ripe	-12.5853
zip	-12.5854
▁stepCount	-12.5857
Blow	-12.5863
)=>	-12.5866
▁eats	-12.587
▁afford	-12.5873
Benefits	-12.5874
▁Tasks	-12.5874
▁pointer	-12.5877
▁consented	-12.5878
Capacity	-12.5881
LOCATE	-12.5881
▁Excel	-12.5881
omprehensive	-12.5881
▁nectar	-12.5881
▁slimy	-12.5881
▁twinkling	-12.5881
▁authorization	-12.5881
▁wildcard	-12.5882
▁efficiently	-12.5883
▁29.9	-12.5883
fill	-12.5884
▁pump	-12.5886
▁documents	-12.589
▁instructed	-12.5891
▁chronic	-12.5891
▁Bo	-12.5892
▁logged	-12.5893
▁discussing	-12.5895
▁acted	-12.5896
▁mv	-12.5896
▁1.)	-12.59
ature	-12.5906
-6	-12.5907
▁floors	-12.5908
▁indices	-12.591
ingredient	-12.5911
▁moisturized	-12.5912
▁inserted	-12.5912
dirt	-12.5915
▁Hold	-12.5921
▁4);	-12.5922
▁Men	-12.5926
▁rent	-12.5926
▁issued	-12.5927
▁totalExpenses	-12.5928
▁EXPERT	-12.5929
Fabric	-12.5932
▁Apple	-12.5947
"]))	-12.5948
ph	-12.595
que	-12.5956
▁Diabetes	-12.5958
▁Image	-12.5958
("{}	-12.5959
ens	-12.5963
▁Choice	-12.5964
▁somewhat	-12.5965
document	-12.5972
▁Highly	-12.5972
Grades	-12.5973
covid	-12.5974
0.8	-12.5975
Blue	-12.5975
impact	-12.5975
whether	-12.5975
Jen	-12.5978
thread	-12.598
ware	-12.5986
▁1000)	-12.5989
("4.	-12.5992
Menu	-12.5996
▁rolls	-12.5999
tm	-12.6
ec	-12.6003
*2	-12.6006
▁increments	-12.6012
▁-2	-12.6012
▁checkFor	-12.6014
3))	-12.6015
▁percentages	-12.6022
▁wink	-12.6025
']]	-12.603
▁averaging	-12.603
▁receiving	-12.603
▁drift	-12.603
▁absence	-12.603
▁todos	-12.6031
▁firemen	-12.6031
▁integrity	-12.6032
▁generating	-12.6034
▁treehouse	-12.6034
▁dared	-12.6039
▁Amelia	-12.604
▁Suzie	-12.6042
▁Thomas	-12.6042
▁Lizzie	-12.6042
HighHandWashing	-12.6043
▁employed	-12.6043
heat	-12.6043
▁Hannah	-12.6044
▁46	-12.6045
▁123	-12.6045
▁Nothing	-12.6047
▁mileage	-12.6049
bit	-12.605
Thresholds	-12.605
▁cheering	-12.605
▁insects	-12.6052
▁injured	-12.6057
▁dolphins	-12.6058
only	-12.6061
▁Drop	-12.6061
▁elsewhere	-12.6062
▁Updating	-12.6066
(256)	-12.6074
▁nutrients	-12.6078
nHowever	-12.608
▁applications	-12.6083
eng	-12.6087
▁0.75)	-12.609
▁reset	-12.6094
▁rinsed	-12.6094
cmp	-12.6097
cl	-12.6099
boo	-12.6103
nWARNING	-12.6103
▁daysSinceLast	-12.6103
("---	-12.6105
United	-12.6105
▁{};	-12.6109
relativeHumidity	-12.6117
▁duplicates	-12.6118
currentDate	-12.612
increase	-12.6121
Translucent	-12.6125
English	-12.6126
headache	-12.6126
short	-12.6126
slice	-12.6127
Heart	-12.6127
Building	-12.6127
profile	-12.6128
▁vitamins	-12.6128
▁waffles	-12.6129
warm	-12.613
Marketing	-12.613
nc	-12.6131
AccessControl	-12.6134
handwashes	-12.6135
determineHygiene	-12.6137
DataPoint	-12.6139
▁Suggest	-12.6141
▁30.0	-12.6141
▁dilemma	-12.6143
CH	-12.6147
("[3]	-12.6153
two	-12.6155
▁checkLow	-12.6161
Fahrenheit	-12.6167
HABIT	-12.618
▁establish	-12.6181
EXPERTISE	-12.6182
▁suffice	-12.6182
Coffee	-12.6182
▁squealed	-12.6182
urried	-12.6183
▁struck	-12.6183
▁traditional	-12.6183
ProfessionalHelp	-12.6183
▁splitting	-12.6184
▁sled	-12.6186
DataEncryption	-12.6187
▁userConsent	-12.6187
▁growling	-12.6188
▁guns	-12.6189
▁programming	-12.619
Followers	-12.6191
▁brittle	-12.6191
▁refrigeration	-12.6191
▁VIEW	-12.6192
▁DATABASE	-12.6192
npos	-12.6193
▁catchall	-12.6193
▁delayed	-12.6195
▁borrowed	-12.6197
▁flushing	-12.6198
▁thickness	-12.6199
▁Cleanser	-12.62
▁rescued	-12.6201
bookings	-12.6202
▁crowd	-12.6202
▁baker	-12.6203
▁md	-12.6203
▁|>	-12.6206
▁ash	-12.6206
==1	-12.6206
▁75,	-12.6208
▁'1	-12.621
▁Details	-12.6213
▁host	-12.6213
▁]);	-12.6214
▁Rub	-12.6215
▁respondents	-12.6217
DE	-12.6219
▁800	-12.6222
Courses	-12.6222
▁Friends	-12.6224
resource	-12.6226
▁Courses	-12.6228
▁))	-12.623
endTime	-12.623
Months	-12.6231
Nasal	-12.6237
+=1	-12.6238
▁'2'	-12.6238
===	-12.6239
▁Prevention	-12.6242
▁Visits	-12.6242
":["	-12.6244
(10,	-12.6245
")]	-12.6246
---\	-12.6249
▁(5	-12.6253
▁Po	-12.6254
images	-12.6256
▁Nurse	-12.627
SE	-12.6274
Train	-12.6275
▁phrases	-12.6277
▁3):	-12.6277
Obese	-12.6279
Lyft	-12.628
except	-12.628
Bella	-12.628
scenario	-12.628
Annie	-12.628
extra	-12.6281
soak	-12.6284
▁principle	-12.6287
Running	-12.6288
82	-12.6288
▁rainbows	-12.6291
▁chill	-12.6293
52	-12.6297
▁conversion	-12.6303
▁planets	-12.6307
▁94	-12.6309
▁San	-12.6312
▁0.1;	-12.6312
HighFoodHygiene	-12.6316
Bathe	-12.6316
der	-12.6316
▁CONTAINS	-12.632
ForExperts	-12.632
▁expiry	-12.6323
▁follower	-12.6327
▁lengths	-12.6329
Tax	-12.633
RATING	-12.6334
GOAL	-12.6335
CATEGORY	-12.6336
▁BLOB	-12.6336
▁exhausted	-12.6336
▁families	-12.6336
▁opportunities	-12.6336
amazon	-12.6336
▁supervision	-12.6336
▁programmers	-12.6336
WORKS	-12.6336
▁crew	-12.6336
FraudDetection	-12.6336
▁recursive	-12.6337
▁fairies	-12.6337
FormatException	-12.6337
################	-12.6338
▁greet	-12.6338
▁startled	-12.6338
▁quacked	-12.6338
▁nine	-12.634
▁largest	-12.634
▁scrubbed	-12.634
▁darkness	-12.6343
▁government	-12.6344
▁wow	-12.6346
▁restored	-12.6347
▁airflow	-12.6348
▁Nick	-12.6348
cleanlinessLevel	-12.635
▁Michael	-12.635
▁March	-12.635
▁opacity	-12.6351
▁deg	-12.6352
?("	-12.6353
▁Bluey	-12.6353
▁intended	-12.6354
▁isolate	-12.6355
▁unethical	-12.6355
▁suffering	-12.6357
▁0.35	-12.6359
▁calculateTotal	-12.6365
▁individually	-12.6369
nFinal	-12.637
epo	-12.6371
indicator	-12.6372
▁deadlines	-12.6373
▁Developer	-12.6376
0.6	-12.6379
▁Luckily	-12.638
▁Application	-12.6383
SecurityLevel	-12.6383
▁waterTemp	-12.6383
▁commit	-12.6384
▁parked	-12.6385
[0	-12.6387
32>()	-12.6388
▁Summary	-12.6391
Transactions	-12.6392
91	-12.6393
ismissing	-12.6393
▁den	-12.6399
▁View	-12.64
▁inp	-12.6402
}%)	-12.6404
calculateLow	-12.6406
▁steer	-12.641
ForBeginner	-12.6414
▁Happy	-12.642
Word	-12.6431
Remove	-12.6432
germ	-12.6432
▁Annual	-12.6433
Summary	-12.6433
EC	-12.6435
continue	-12.6435
periodic	-12.6435
Potential	-12.6435
Allergies	-12.6436
Learn	-12.6436
Pressure	-12.6436
Interval	-12.6436
OUTPUT	-12.6436
laptop	-12.6436
success	-12.6436
approved	-12.6438
identity	-12.6438
provider	-12.6439
HANDS	-12.644
▁airports	-12.6441
Charge	-12.6445
▁100))	-12.6447
▁5),	-12.6453
▁pad	-12.6457
men	-12.6459
HighEarHygiene	-12.6461
▁twin	-12.6466
ened	-12.6467
51	-12.647
Lid	-12.647
▁0.7)	-12.6472
ingTechnique	-12.6478
▁snail	-12.648
par	-12.6481
▁valued	-12.6481
mer	-12.6486
Purchase	-12.649
Previous	-12.6491
Responsible	-12.6491
PERFORMS	-12.6492
▁chuckled	-12.6492
▁fuzzy	-12.6492
▁possibilities	-12.6492
▁puppies	-12.6492
▁silence	-12.6492
▁subsequent	-12.6492
Paragraph	-12.6492
▁declaration	-12.6492
Words	-12.6493
▁radishes	-12.6493
req	-12.6494
*0..1]-(	-12.6494
▁Squirrel	-12.6494
png	-12.6495
▁fourth	-12.6496
▁poultry	-12.6498
▁slap	-12.6498
▁discussed	-12.6499
▁Olive	-12.65
▁tiptoe	-12.65
▁REPLACE	-12.6502
▁premium	-12.6502
▁Threshold	-12.6503
LIKES	-12.6504
▁leaning	-12.6506
53	-12.6508
▁clippers	-12.6508
Eng	-12.6508
▁getUserInput	-12.6509
Ex	-12.6509
▁lightweight	-12.6509
▁2]	-12.6512
extremely	-12.6514
aes	-12.6515
▁sickness	-12.652
▁systolic	-12.6522
▁Outside	-12.6524
▁req	-12.6528
▁loosen	-12.6534
sore	-12.6537
Notes	-12.654
di	-12.654
they	-12.6541
TravelTime	-12.6541
▁4.5	-12.6542
]+	-12.6546
HygieneRating	-12.6547
▁165	-12.6552
processing	-12.6558
▁force	-12.6564
▁Solution	-12.6565
Reader	-12.657
▁datasets	-12.6578
"`)	-12.6579
engineers	-12.6579
_5	-12.6579
what	-12.658
Week	-12.6581
▁sentiments	-12.6583
Metrics	-12.6585
▁regex	-12.6587
RH	-12.6588
▁NAME	-12.6589
▁170	-12.6592
------+---------	-12.6592
Caucasian	-12.6594
WATER	-12.6595
CLEANING	-12.6595
General	-12.6595
hearing	-12.6595
multiplier	-12.6595
Explanation	-12.6595
bowl	-12.6595
Leo	-12.6595
menu	-12.6597
-+-------------+	-12.6597
sc	-12.66
tobacco	-12.6605
bar	-12.6606
81	-12.661
▁travers	-12.6612
nConsider	-12.6612
fileName	-12.6617
##	-12.6621
miles	-12.6623
456	-12.6623
consentStatus	-12.6626
rated	-12.6627
▁Station	-12.6629
tissues	-12.6633
Property	-12.6643
}'"	-12.6646
Carry	-12.6648
Ann	-12.6648
▁Does	-12.6648
▁Christmas	-12.6651
▁Snuggles	-12.6651
▁skies	-12.6651
▁wrist	-12.6651
lvl	-12.6651
▁tapped	-12.6651
▁therefore	-12.6651
Itching	-12.6651
COST	-12.6652
▁methodology	-12.6653
---------+------	-12.6653
▁0.01	-12.6654
▁teaches	-12.6655
▁enroll	-12.6656
▁Jacob	-12.6656
▁Jenna	-12.6657
▁(3	-12.6657
▁Years	-12.6657
▁transparencies	-12.6658
▁hallway	-12.6659
dryer	-12.6662
▁herb	-12.6664
▁entity	-12.6664
▁rid	-12.6666
▁flames	-12.6667
▁timeframe	-12.6669
▁cycling	-12.6669
Database	-12.6671
▁compound	-12.6671
)*100	-12.6676
▁carbohydrates	-12.6677
▁backup	-12.6693
SafetyScore	-12.6695
WashFrequency	-12.6697
Document	-12.67
Spent	-12.6704
(',')	-12.6704
▁Progress	-12.6706
cuticles	-12.6706
▁Request	-12.6707
)-[]->(	-12.6707
▁Momo	-12.6712
▁crate	-12.6715
▁Hash	-12.6718
▁veggies	-12.6725
▁Minutes	-12.6728
▁"./	-12.6729
ned	-12.673
▁suitcase	-12.6736
▁quack	-12.6738
gi	-12.6739
▁tier	-12.6741
▁userAge	-12.6742
Cook	-12.6744
ht	-12.6744
▁Free	-12.6746
IP	-12.6747
Visited	-12.6747
▁mane	-12.6748
▁precaution	-12.6749
inf	-12.6749
▁3),	-12.6749
▁currentItem	-12.6749
--------+-------	-12.6749
Cross	-12.675
▁facemask	-12.6754
▁wound	-12.6754
Deep	-12.6756
unwaxed	-12.6757
criterion	-12.6757
three	-12.6757
Extra	-12.6757
laundry	-12.6757
']))	-12.6758
▁models	-12.6761
▁attribute	-12.6761
▁passwords	-12.6762
Stream	-12.6766
fork	-12.6766
uc	-12.6766
running	-12.6771
sys	-12.6771
warning	-12.6771
BasedOn	-12.6771
Progress	-12.6773
▁differences	-12.6774
▁charges	-12.6778
rates	-12.6782
▁swans	-12.6795
▁Loss	-12.6796
!["	-12.6796
▁attend	-12.6803
`='	-12.6807
▁obey	-12.6809
▁refine	-12.6811
▁MonoBehaviour	-12.6812
▁infinity	-12.6812
▁temperture	-12.6812
▁Squeaky	-12.6812
▁submitted	-12.6812
▁characteristics	-12.6812
destinations	-12.6812
▁rumble	-12.6813
▁stomped	-12.6813
Equal	-12.6815
hasNext	-12.6816
▁classifier	-12.6817
▁crumbs	-12.6818
nGreat	-12.6818
▁Remy	-12.6821
▁princesses	-12.6821
ret	-12.6822
▁multi	-12.6822
HairType	-12.6823
▁artist	-12.6823
▁Used	-12.6826
▁Sophia	-12.6827
Second	-12.6828
▁transformedText	-12.6832
ord	-12.6832
*/	-12.6833
▁avail	-12.6838
▁Immediately	-12.6839
Rent	-12.6841
_10	-12.6845
pd	-12.6845
▁roaring	-12.6846
(&"	-12.6847
▁reviewed	-12.6847
▁Subject	-12.6857
handSanitizer	-12.6858
▁loanAmount	-12.6859
Reminders	-12.6863
789	-12.6864
▁Deep	-12.6868
son	-12.6869
▁Determining	-12.6875
▁Back	-12.6876
rd	-12.6878
Po	-12.6879
▁wc	-12.6883
▁25.0	-12.6886
▁Machine	-12.6897
urationInSeconds	-12.6897
---+-----------+	-12.6897
75,	-12.6902
▁spill	-12.6903
Hr	-12.6904
▁login	-12.6905
▁sweeties	-12.6908
tail	-12.6908
▁Light	-12.6909
▁wears	-12.6916
▁pedal	-12.6916
sheet	-12.6918
Children	-12.6918
Rainfall	-12.6919
business	-12.692
MODERATE	-12.692
excellent	-12.692
examination	-12.692
children	-12.692
Gum	-12.6921
Provide	-12.6921
paid	-12.6922
Fred	-12.6923
Driver	-12.6924
03	-12.6925
manager	-12.6926
about	-12.6927
productId	-12.6929
ped	-12.6932
patientId	-12.6936
▁cheeks	-12.6938
("""	-12.6942
▁buckets	-12.6942
3),	-12.6945
Processing	-12.6945
tremeFoodHygiene	-12.6945
▁40%	-12.6945
months	-12.6946
<<"	-12.6947
▁prunes	-12.6951
▁sausages	-12.6956
▁stole	-12.6959
▁applaud	-12.6967
▁tags	-12.6968
▁html	-12.6968
ttempting	-12.6971
▁Observation	-12.6971
oc	-12.6972
stdout	-12.6973
]`	-12.6974
NAIL	-12.6975
fluoridated	-12.6976
Completion	-12.6976
InSharedSpaces	-12.6976
▁disposing	-12.6976
▁garbage	-12.6976
▁inviting	-12.6976
▁landscape	-12.6976
▁pancakes	-12.6976
▁purchasing	-12.6976
▁trampoline	-12.6976
▁neighbourhood	-12.6976
▁candies	-12.6976
▁peroxide	-12.6976
▁maintainability	-12.6977
▁manageable	-12.6977
▁Birthday	-12.6978
▁Cook	-12.6979
▁JS	-12.6979
(3,	-12.6982
▁Jessie	-12.6984
▁tricked	-12.6985
▁loyalty	-12.6985
▁disk	-12.6986
▁Individual	-12.6986
▁therapy	-12.6986
▁Matt	-12.6988
▁passage	-12.6989
▁resistance	-12.6989
▁aggressive	-12.699
▁pollen	-12.6991
Override	-12.6991
▁united	-12.6993
▁owners	-12.6993
▁95)	-12.6995
wipes	-12.6997
ler	-12.6998
▁whitespace	-12.7002
▁extraction	-12.7003
▁59	-12.7004
▁kicking	-12.7006
▁deposit	-12.7009
ke	-12.7009
▁Skipping	-12.7018
▁7:	-12.7019
▁pears	-12.702
▁Ethic	-12.702
▁Saturday	-12.7021
▁loading	-12.7021
nosebleed	-12.7023
permission	-12.7023
▁Lowest	-12.7034
▁predict	-12.7039
▁2=	-12.7039
▁bowls	-12.7041
▁Tooth	-12.7057
▁checkEyeHygiene	-12.7058
POINT	-12.7076
▁manicures	-12.7077
▁aspect	-12.708
Base	-12.7082
Prescription	-12.7085
MESSAGE	-12.7086
charlie	-12.7086
Profit	-12.7086
Women	-12.7086
DRYRUN	-12.7087
matrix	-12.7087
Always	-12.7087
verification	-12.7087
FROM	-12.7087
effective	-12.7087
SharedSpace	-12.7088
restroom	-12.7088
board	-12.7088
▁Co	-12.7099
▁helmets	-12.7099
customerType	-12.71
▁0.75,	-12.7104
dbname	-12.7106
ina	-12.7106
files	-12.7109
css	-12.711
▁Highest	-12.7112
▁Country	-12.7114
▁rels	-12.7116
isValidInput	-12.7118
▁drives	-12.7118
Call	-12.7121
who	-12.7124
road	-12.7125
▁undergo	-12.7128
hl	-12.7128
▁cloths	-12.7131
UserID	-12.7139
Trans	-12.7142
▁NUMERIC	-12.7142
▁reliablity	-12.7142
▁flex	-12.7142
▁gradually	-12.7143
BathRoutine	-12.7143
▁Constructor	-12.7143
Times	-12.7143
cdc	-12.7143
▁Euclidean	-12.7144
▁readily	-12.7144
▁Statistics	-12.7148
▁unlikely	-12.7148
getName	-12.715
▁syringe	-12.7152
ose	-12.7152
▁Adam	-12.7153
▁virus	-12.7155
▁exclude	-12.7159
▁engaged	-12.7161
▁cl	-12.7163
▁merchant	-12.7164
▁failing	-12.7164
▁citizen	-12.7164
▁0.00	-12.7168
▁isolation	-12.7171
▁questionnaire	-12.7172
▁diabetic	-12.7174
▁startDate	-12.7175
▁50000	-12.7175
▁vowe	-12.7177
Incorrect	-12.7178
▁colder	-12.7184
▁PUBLIC	-12.7184
▁9,	-12.7186
0.0,	-12.7187
64`	-12.7196
▁informed	-12.7198
▁photos	-12.7201
▁Top	-12.7203
▁rocking	-12.7204
WeatherCondition	-12.7208
Bun	-12.721
ana	-12.7213
▁dt	-12.7223
▁Material	-12.7226
▁18,	-12.7227
Select	-12.723
▁Positive	-12.7231
}};	-12.7231
%';	-12.7232
57	-12.7238
tax	-12.7247
Encryption	-12.7251
Surfaces	-12.7252
specialty	-12.7252
Matrix	-12.7254
peak	-12.7255
Timestamp	-12.7255
▁oat	-12.7255
▁tutorial	-12.7256
instagram	-12.7256
Treat	-12.7256
hypertension	-12.7256
spoon	-12.7256
sensor	-12.7257
Sophie	-12.7257
Otherwise	-12.7257
individual	-12.7257
Right	-12.7257
DueDate	-12.7257
OS	-12.7257
▁diastolic	-12.7257
▁92	-12.7258
Main	-12.7258
African	-12.726
Smoker	-12.726
Bobby	-12.7262
Join	-12.7262
startDate	-12.7262
doctorID	-12.7268
▁learns	-12.7269
ValueError	-12.7271
▁40,	-12.7272
Model	-12.7273
END	-12.7274
▁stare	-12.7275
▁Join	-12.7276
)>0	-12.7278
▁outliers	-12.7284
▁productName	-12.7287
▁18.5)	-12.7289
2`	-12.7293
2',	-12.7294
Needs	-12.7295
Tissues	-12.7296
▁rounding	-12.7296
▁18;	-12.7306
▁(`$	-12.7306
▁restrict	-12.7309
▁bars	-12.7309
▁97	-12.7309
healthcare	-12.731
maps	-12.7312
▁describe	-12.7312
SERVICE	-12.7312
Yeah	-12.7312
ACTIVITY	-12.7312
DISTANCE	-12.7312
▁UnityEngine	-12.7312
Schedules	-12.7312
▁occasionally	-12.7313
▁cautiously	-12.7314
▁couple	-12.7317
▁scales	-12.7318
▁coconut	-12.7318
▁Evaluation	-12.7318
▁consistency	-12.7318
▁invest	-12.7321
▁expired	-12.7323
▁odour	-12.7324
▁sneaky	-12.7324
▁SMS	-12.7325
|\	-12.7325
▁Constant	-12.7326
▁stolen	-12.7329
▁Programming	-12.733
▁earliest	-12.733
basename	-12.7332
▁crackers	-12.7335
▁pouring	-12.7337
88	-12.7338
ace	-12.734
ue	-12.7341
▁resolve	-12.7342
▁decrypted	-12.7342
▁et	-12.7345
▁DOB	-12.7345
▁flushes	-12.7348
HighHandHygiene	-12.7349
▁awake	-12.735
▁USD	-12.7355
▁Instructions	-12.7356
[][]	-12.7358
▁>=65	-12.7359
Algorithm	-12.7364
▁tracked	-12.7364
va	-12.7365
unit	-12.7367
grouped	-12.7371
▁General	-12.7372
highly	-12.7374
▁English	-12.7375
▁yearly	-12.7376
▁Ow	-12.7385
NaN	-12.7385
▁dispensers	-12.7386
▁wires	-12.7387
▁6,	-12.7388
▁Full	-12.7389
("#{	-12.7389
have	-12.739
ME	-12.7391
TimeSeconds	-12.7393
"]}	-12.7399
view	-12.7402
▁mechanisms	-12.7404
ck	-12.7406
dia	-12.7412
endDate	-12.742
▁prayer	-12.7423
Bill	-12.7427
PATIENT	-12.7427
ENGINEER	-12.7427
Config	-12.7428
HAIR	-12.7428
BEGINNER	-12.7429
PRIVATE	-12.7429
University	-12.7429
congested	-12.7429
▁35)	-12.7429
ep	-12.7429
ev	-12.7429
ITEMS	-12.743
dates	-12.743
common	-12.743
▁cleaners	-12.743
▁paintings	-12.7433
▁blocked	-12.7434
failed	-12.7434
▁trend	-12.7437
Fever	-12.7438
tech	-12.7442
matches	-12.7443
▁75;	-12.7444
checked	-12.7446
Unhealthy	-12.7448
riskScore	-12.7449
▁Advice	-12.745
▁containers	-12.7454
▁750	-12.7455
▁lr	-12.7456
▁Practices	-12.7457
▁87	-12.746
▁authenticate	-12.7462
PPE	-12.7471
IV	-12.7471
▁Second	-12.7476
"][	-12.7477
▁Issues	-12.7479
▁refuse	-12.7482
TREATMENT	-12.7484
Synthetic	-12.7484
▁Gigi	-12.7484
▁attainment	-12.7484
▁opposite	-12.7484
▁pleasure	-12.7484
RANGE	-12.7484
dynamodb	-12.7484
vec	-12.7486
▁installed	-12.749
▁interpret	-12.7492
▁mood	-12.7493
app	-12.7494
▁repaired	-12.7497
DB	-12.7498
▁UV	-12.7499
▁bathingRoutine	-12.7501
▁dusty	-12.7501
race	-12.7501
▁Therefore	-12.7502
▁cushioning	-12.7506
▁touches	-12.7507
--+------------+	-12.7507
teal	-12.7511
▁15%	-12.7512
▁Basic	-12.7515
▁HandWash	-12.7519
▁million	-12.7521
ExtremeRegular	-12.7523
qtip	-12.7524
▁SAFE	-12.7535
▁Valid	-12.7536
nChoose	-12.7537
passenger	-12.754
FoodSafety	-12.754
▁hasFever	-12.754
Transport	-12.7543
`.`	-12.7548
▁topical	-12.755
▁fitnessLevel	-12.7551
-30	-12.7555
▁Warning	-12.7556
▁humans	-12.7556
)[0]	-12.7557
:00:00	-12.7558
tag	-12.756
▁rounded	-12.7561
owner	-12.7565
30,	-12.7567
Offer	-12.7569
▁laps	-12.7569
▁Ma	-12.7569
▁accessed	-12.7572
▁powers	-12.7573
▁uri	-12.7575
pe	-12.7579
▁Office	-12.7586
ION	-12.7588
▁flavors	-12.7591
▁growl	-12.7593
▁creamy	-12.7595
shoes	-12.7597
▁"${!	-12.7598
Performing	-12.76
Exposure	-12.7603
Premium	-12.7603
dirtiness	-12.7603
▁mile	-12.7604
smoking	-12.7604
BMR	-12.7604
discharge	-12.7604
pandas	-12.7604
SQL	-12.7605
mass	-12.7606
damaged	-12.7606
▁demographic	-12.7607
▁dangers	-12.7608
▁London	-12.7609
humid	-12.7609
▁movement	-12.7611
Hash	-12.7614
▁Unwaxed	-12.7617
PatientData	-12.7623
▁1200	-12.763
▁purpose	-12.7634
999	-12.7638
▁novice	-12.7638
parser	-12.7641
OralHealth	-12.7642
lightReservation	-12.7645
lar	-12.7648
▁mittens	-12.7649
hotels	-12.7649
jq	-12.7652
▁automatic	-12.766
EDUCATION	-12.766
Analyzing	-12.766
▁exhibit	-12.766
▁fault	-12.766
▁ophthalmologist	-12.766
▁pajamas	-12.766
▁sailboat	-12.766
Obj	-12.766
▁tractor	-12.766
Sentence	-12.766
▁occurring	-12.766
▁headache	-12.7661
▁dragons	-12.7662
▁winked	-12.7663
▁neatly	-12.7665
▁Pre	-12.7666
▁background	-12.7671
▁Card	-12.7674
▁Explain	-12.7676
▁traded	-12.7676
▁Bird	-12.7678
matched	-12.7678
▁Mikey	-12.7679
ake	-12.7679
▁slower	-12.768
>`)	-12.768
▁0.3)	-12.7681
▁axios	-12.7682
▁kilometers	-12.7683
▁unclean	-12.7684
▁cnt	-12.7685
▁"%"	-12.7689
▁drip	-12.7689
WeatherStation	-12.7691
▁edit	-12.7692
▁silk	-12.7692
▁targeted	-12.7692
▁Paper	-12.7696
▁ceil	-12.7698
Eyelid	-12.7699
▁UpdateExtreme	-12.7701
Tweets	-12.7703
▁updatedStatus	-12.7704
▁regrett	-12.7705
▁3))	-12.7706
mp	-12.7709
▁outfit	-12.7709
▁antibiotics	-12.7711
Con	-12.7713
==0	-12.7715
0.25	-12.7716
project	-12.7718
Shape	-12.772
▁**`	-12.7723
▁crow	-12.7727
numpy	-12.7728
Exams	-12.7732
▁drugs	-12.7735
▁Between	-12.7738
▁Most	-12.7744
▁remover	-12.7744
▁Airport	-12.7744
dp	-12.7744
nOverall	-12.7745
▁transformedItem	-12.7747
Suggest	-12.7747
▁providers	-12.7761
▁admin	-12.7767
▁.2	-12.7768
▁pencils	-12.7778
------------+---	-12.7778
eligible	-12.7781
Outcome	-12.7781
Smoking	-12.7782
proper	-12.7782
utilitarian	-12.7782
DIRTY	-12.7783
completion	-12.7783
life	-12.7783
Dispose	-12.7783
opaque	-12.7783
locations	-12.7783
GET	-12.7783
Leave	-12.7783
application	-12.7784
granted	-12.7784
▁.1	-12.7784
trimmed	-12.7784
][2]	-12.7786
9.99	-12.7787
▁90;	-12.7787
Pete	-12.7788
"$	-12.7789
▁Long	-12.7791
Failure	-12.7793
flag	-12.7793
gh	-12.7796
ow	-12.7811
pdf	-12.7813
▁Moisturizer	-12.7814
▁strengthen	-12.7816
▁Levels	-12.7821
ene	-12.7821
▁prevents	-12.7826
five	-12.7826
Enough	-12.7827
▁designs	-12.7829
)//	-12.7831
▁colon	-12.7837
initial	-12.7838
features	-12.7838
▁chick	-12.7838
LANGUAGE	-12.7838
Epsom	-12.7838
▁desert	-12.7838
▁ponies	-12.7838
▁trembling	-12.7838
▁droplets	-12.7838
▁wrapping	-12.7838
▁batteries	-12.7839
▁feast	-12.7839
▁firm	-12.7839
Approved	-12.784
▁Factor	-12.7841
▁allowable	-12.7841
▁earplugs	-12.7842
Freq	-12.7843
Squats	-12.7844
▁Binky	-12.7844
nights	-12.7845
▁intense	-12.7845
▁dew	-12.7845
lib	-12.7846
▁separator	-12.7847
▁Reason	-12.7847
▁weeping	-12.7848
▁95%	-12.7848
▁bonus	-12.7848
▁penguins	-12.7848
5))	-12.7851
▁taxRate	-12.7852
▁tricky	-12.7852
▁badge	-12.7855
▁fairly	-12.7855
▁trimNails	-12.7856
▁0.65	-12.7857
▁peeking	-12.7858
▁depth	-12.7859
▁resolved	-12.7862
▁timestamps	-12.7862
[...]
